{
  "version": "1.0",
  "truncation": null,
  "padding": null,
  "added_tokens": [
    {
      "id": 0,
      "content": "<pad>",
      "single_word": false,
      "lstrip": false,
      "rstrip": false,
      "normalized": false,
      "special": true
    },
    {
      "id": 1,
      "content": "<unk>",
      "single_word": false,
      "lstrip": false,
      "rstrip": false,
      "normalized": false,
      "special": true
    },
    {
      "id": 2,
      "content": "<bos>",
      "single_word": false,
      "lstrip": false,
      "rstrip": false,
      "normalized": false,
      "special": true
    },
    {
      "id": 3,
      "content": "<eos>",
      "single_word": false,
      "lstrip": false,
      "rstrip": false,
      "normalized": false,
      "special": true
    }
  ],
  "normalizer": null,
  "pre_tokenizer": {
    "type": "ByteLevel",
    "add_prefix_space": false,
    "trim_offsets": true,
    "use_regex": true
  },
  "post_processor": null,
  "decoder": {
    "type": "ByteLevel",
    "add_prefix_space": true,
    "trim_offsets": true,
    "use_regex": true
  },
  "model": {
    "type": "BPE",
    "dropout": null,
    "unk_token": "<unk>",
    "continuing_subword_prefix": null,
    "end_of_word_suffix": null,
    "fuse_unk": false,
    "byte_fallback": false,
    "ignore_merges": false,
    "vocab": {
      "<pad>": 0,
      "<unk>": 1,
      "<bos>": 2,
      "<eos>": 3,
      "!": 4,
      "\"": 5,
      "#": 6,
      "$": 7,
      "&": 8,
      "'": 9,
      "(": 10,
      ")": 11,
      "*": 12,
      "+": 13,
      ",": 14,
      "-": 15,
      ".": 16,
      "/": 17,
      "0": 18,
      "1": 19,
      "2": 20,
      "3": 21,
      "4": 22,
      "5": 23,
      "6": 24,
      "7": 25,
      "8": 26,
      "9": 27,
      ":": 28,
      ";": 29,
      "?": 30,
      "A": 31,
      "B": 32,
      "C": 33,
      "D": 34,
      "E": 35,
      "F": 36,
      "G": 37,
      "H": 38,
      "I": 39,
      "J": 40,
      "K": 41,
      "L": 42,
      "M": 43,
      "N": 44,
      "O": 45,
      "P": 46,
      "Q": 47,
      "R": 48,
      "S": 49,
      "T": 50,
      "U": 51,
      "V": 52,
      "W": 53,
      "X": 54,
      "Y": 55,
      "Z": 56,
      "]": 57,
      "_": 58,
      "`": 59,
      "a": 60,
      "b": 61,
      "c": 62,
      "d": 63,
      "e": 64,
      "f": 65,
      "g": 66,
      "h": 67,
      "i": 68,
      "j": 69,
      "k": 70,
      "l": 71,
      "m": 72,
      "n": 73,
      "o": 74,
      "p": 75,
      "q": 76,
      "r": 77,
      "s": 78,
      "t": 79,
      "u": 80,
      "v": 81,
      "w": 82,
      "x": 83,
      "y": 84,
      "z": 85,
      "~": 86,
      "¡": 87,
      "¢": 88,
      "¦": 89,
      "©": 90,
      "«": 91,
      "¬": 92,
      "°": 93,
      "±": 94,
      "³": 95,
      "´": 96,
      "¶": 97,
      "¹": 98,
      "»": 99,
      "Â": 100,
      "Ã": 101,
      "Å": 102,
      "Ë": 103,
      "â": 104,
      "ĉ": 105,
      "Ċ": 106,
      "Ġ": 107,
      "Ģ": 108,
      "Ĥ": 109,
      "ĥ": 110,
      "Ħ": 111,
      "ĵ": 112,
      "ľ": 113,
      "Ŀ": 114,
      "ł": 115,
      "Ń": 116,
      "he": 117,
      "Ġt": 118,
      "Ġa": 119,
      "Ġs": 120,
      "Ġw": 121,
      "nd": 122,
      "Ġthe": 123,
      "ed": 124,
      "Ġand": 125,
      "Ġto": 126,
      "Ġb": 127,
      "in": 128,
      "Ġh": 129,
      "Ġwa": 130,
      "re": 131,
      "Ġf": 132,
      "ou": 133,
      "it": 134,
      "Ġl": 135,
      "Ġc": 136,
      "er": 137,
      "Ġd": 138,
      "Ġhe": 139,
      "Ġwas": 140,
      "Ġm": 141,
      "Ġp": 142,
      "om": 143,
      "ĠT": 144,
      "Ġo": 145,
      "ay": 146,
      "ar": 147,
      "ing": 148,
      "is": 149,
      "Ġg": 150,
      "il": 151,
      "id": 152,
      "at": 153,
      "en": 154,
      "Ġn": 155,
      "Ġsa": 156,
      "Ġha": 157,
      "ĠS": 158,
      "ĠThe": 159,
      "an": 160,
      "im": 161,
      "or": 162,
      "on": 163,
      "Ġit": 164,
      "Ġth": 165,
      "ll": 166,
      "le": 167,
      "ĠH": 168,
      "Ġher": 169,
      "et": 170,
      "ot": 171,
      "ir": 172,
      "ĠShe": 173,
      "ĠHe": 174,
      "es": 175,
      "ver": 176,
      "Ġin": 177,
      "ut": 178,
      "ow": 179,
      "ck": 180,
      "Ġe": 181,
      "ĠThey": 182,
      "Ġu": 183,
      "ld": 184,
      "oo": 185,
      "ig": 186,
      "Ġy": 187,
      "Ġsaid": 188,
      "Ġr": 189,
      "Ġbe": 190,
      "ily": 191,
      "am": 192,
      "Ġst": 193,
      "ce": 194,
      "Ġshe": 195,
      "Ġ\"": 196,
      "pp": 197,
      "ke": 198,
      "ĠI": 199,
      "ith": 200,
      "ve": 201,
      "On": 202,
      "Ġwith": 203,
      "Ġof": 204,
      "Lily": 205,
      "Ġon": 206,
      "Ġso": 207,
      "ked": 208,
      "ri": 209,
      "Ġhis": 210,
      "nt": 211,
      "Ġpl": 212,
      "very": 213,
      "Ġyou": 214,
      "ad": 215,
      "Ġday": 216,
      "Ġthat": 217,
      "Ġup": 218,
      "Ġhad": 219,
      "st": 220,
      "Ġplay": 221,
      "Ġthey": 222,
      "el": 223,
      "ĠLily": 224,
      "Ġmom": 225,
      "Ġfor": 226,
      "Ġwe": 227,
      "ould": 228,
      "un": 229,
      "my": 230,
      "ĠB": 231,
      "The": 232,
      "'s": 233,
      "Ġhapp": 234,
      "ent": 235,
      "ch": 236,
      "itt": 237,
      "Ġli": 238,
      "Ġwant": 239,
      "out": 240,
      "Ġsh": 241,
      "her": 242,
      "ly": 243,
      "Ġvery": 244,
      "ound": 245,
      "ime": 246,
      "ome": 247,
      "se": 248,
      "ittle": 249,
      "all": 250,
      "Ġdo": 251,
      "end": 252,
      "Ġtime": 253,
      "Ġwh": 254,
      "Ġnot": 255,
      "Ġlittle": 256,
      "Ġthere": 257,
      "Ġk": 258,
      "al": 259,
      "ht": 260,
      "Ġne": 261,
      "Ġhappy": 262,
      "Ġre": 263,
      "Ġbig": 264,
      "ĠM": 265,
      "ĠĊ": 266,
      "Ġsm": 267,
      "Ġbut": 268,
      "ĠIt": 269,
      "ack": 270,
      "Ġsaw": 271,
      "Ġan": 272,
      "riend": 273,
      "Ġfriend": 274,
      "Ġis": 275,
      "ra": 276,
      "Ġas": 277,
      "ry": 278,
      "One": 279,
      "ide": 280,
      ".\"": 281,
      "ake": 282,
      "'t": 283,
      "ved": 284,
      "Once": 285,
      "ug": 286,
      "ter": 287,
      "Ġloo": 288,
      "Ġwere": 289,
      "ore": 290,
      "ec": 291,
      "Ġlo": 292,
      "!\"": 293,
      "Ġhim": 294,
      "Ġbo": 295,
      "Ġtoo": 296,
      "Ġgo": 297,
      "irl": 298,
      "Ġse": 299,
      "ĠTim": 300,
      "Ġupon": 301,
      "Ġgirl": 302,
      "Ġwanted": 303,
      "Ġj": 304,
      "ard": 305,
      "ill": 306,
      "Ġout": 307,
      "Ġsp": 308,
      "way": 309,
      "Ġthem": 310,
      "fu": 311,
      "Ġat": 312,
      "Ġcould": 313,
      "ind": 314,
      "ur": 315,
      "Ġare": 316,
      "hen": 317,
      "ĠA": 318,
      "Ġdid": 319,
      "Ġtheir": 320,
      "Ġsmil": 321,
      "ain": 322,
      "Ġex": 323,
      "hed": 324,
      "art": 325,
      "Ġhave": 326,
      "Ġwent": 327,
      "Ġar": 328,
      "rom": 329,
      "ic": 330,
      "ĠJ": 331,
      "hing": 332,
      "ful": 333,
      "Ġall": 334,
      "lp": 335,
      "Ġnam": 336,
      "Ġfriends": 337,
      "ight": 338,
      "Ġkn": 339,
      "Ġcan": 340,
      "ood": 341,
      "Ġhelp": 342,
      "um": 343,
      "one": 344,
      "ark": 345,
      "Ġback": 346,
      "ĠBen": 347,
      "?\"": 348,
      "Ġcl": 349,
      "Ġfun": 350,
      "are": 351,
      "Ġle": 352,
      "Ġno": 353,
      "Ġnamed": 354,
      "Ġsay": 355,
      "ĠTom": 356,
      "Ġsc": 357,
      "oug": 358,
      "Ġloved": 359,
      "op": 360,
      "Ġal": 361,
      "You": 362,
      "elt": 363,
      "side": 364,
      "ĠOne": 365,
      "Ġsmiled": 366,
      "ick": 367,
      "Ġfelt": 368,
      "Ġman": 369,
      "Ġaround": 370,
      "Ġasked": 371,
      "Ġfe": 372,
      "Ġtoy": 373,
      "ĠTimmy": 374,
      "ame": 375,
      "Ġlooked": 376,
      "omet": 377,
      "Ġlike": 378,
      "Ġsome": 379,
      "Ġsee": 380,
      "ure": 381,
      "Ġro": 382,
      "Ġwould": 383,
      "Ġboy": 384,
      "Ġbr": 385,
      "get": 386,
      "Ġbir": 387,
      "ĠW": 388,
      "Ġme": 389,
      "Ġstart": 390,
      "ong": 391,
      "ice": 392,
      "Ġsomet": 393,
      "ss": 394,
      "Ġbird": 395,
      "ade": 396,
      "Ġfa": 397,
      "Ġwor": 398,
      "Ġag": 399,
      "ings": 400,
      "dd": 401,
      "king": 402,
      "Ġwhat": 403,
      "Ġtre": 404,
      "Ã¢": 405,
      "âĤ": 406,
      "âĤ¬": 407,
      "gether": 408,
      "Ġaway": 409,
      "own": 410,
      "Ġmake": 411,
      "Ġstarted": 412,
      "ĠBut": 413,
      "ie": 414,
      "Ġran": 415,
      "ag": 416,
      "ared": 417,
      "oud": 418,
      "Ġmade": 419,
      "Ġsomething": 420,
      "ited": 421,
      "if": 422,
      "Ġtogether": 423,
      ",\"": 424,
      "Ġco": 425,
      "Ġpark": 426,
      "ther": 427,
      "Ġexc": 428,
      "Ġcar": 429,
      "ĠYou": 430,
      "Ġsad": 431,
      "Ġother": 432,
      "Ġfrom": 433,
      "Ġput": 434,
      "Ġnew": 435,
      "ble": 436,
      "Ġpr": 437,
      "Ġsays": 438,
      "Ġla": 439,
      "Ġhome": 440,
      "Ġagain": 441,
      "Ġmu": 442,
      "Ġwhen": 443,
      "Ġhug": 444,
      "ell": 445,
      "Ġthen": 446,
      "Ġdec": 447,
      "Ġwho": 448,
      "est": 449,
      "ep": 450,
      "ĠL": 451,
      "Ġfound": 452,
      "ach": 453,
      "ried": 454,
      "pped": 455,
      "Ġch": 456,
      "Ġgood": 457,
      "ook": 458,
      "Ġfl": 459,
      "ĠE": 460,
      "as": 461,
      "Ġwal": 462,
      "qu": 463,
      "Ġget": 464,
      "ought": 465,
      "ally": 466,
      "Ġplaying": 467,
      "pl": 468,
      "Ġexcited": 469,
      "Ġsw": 470,
      "Ġthings": 471,
      "hat": 472,
      "Ġgot": 473,
      "ous": 474,
      "ided": 475,
      "Ġdecided": 476,
      "uck": 477,
      "Ġevery": 478,
      "Ġliked": 479,
      "ro": 480,
      "ave": 481,
      "Ġcame": 482,
      "ny": 483,
      "Ġbl": 484,
      "ax": 485,
      "Ġone": 486,
      "Ġdown": 487,
      "Ġbec": 488,
      "Ġscared": 489,
      "ouse": 490,
      "ust": 491,
      "Ġv": 492,
      "Ġfind": 493,
      "Ġthan": 494,
      "na": 495,
      "Ġcare": 496,
      "Ġfeel": 497,
      "Ġyour": 498,
      "ara": 499,
      "ĠD": 500,
      "udd": 501,
      "ist": 502,
      "Ġdog": 503,
      "Ġab": 504,
      "Ġdad": 505,
      "ways": 506,
      "Ġke": 507,
      "ĠMom": 508,
      "Ġdidn": 509,
      "Ġalways": 510,
      "ue": 511,
      "Ġgra": 512,
      "ap": 513,
      "Ġgr": 514,
      "arn": 515,
      "fe": 516,
      "us": 517,
      "Ġmommy": 518,
      "Ġtook": 519,
      "our": 520,
      "ĠF": 521,
      "Ġlot": 522,
      "ess": 523,
      "Ġkne": 524,
      "ant": 525,
      "ers": 526,
      "Ġabout": 527,
      "eci": 528,
      "nder": 529,
      "Ġpo": 530,
      "They": 531,
      "Ġmy": 532,
      "Ġlook": 533,
      "Ġoutside": 534,
      "bb": 535,
      "Ġtree": 536,
      "nna": 537,
      "ched": 538,
      "Ġwill": 539,
      "Ġthought": 540,
      "ise": 541,
      "ened": 542,
      "Ġball": 543,
      "Ġtoys": 544,
      "ite": 545,
      "ĠSam": 546,
      "Ġint": 547,
      "ecial": 548,
      "Ġspecial": 549,
      "Ġold": 550,
      "Ġta": 551,
      "Ġmore": 552,
      "Ġlearn": 553,
      "Ġknow": 554,
      "ret": 555,
      "Ġho": 556,
      "Ġknew": 557,
      "Ġtake": 558,
      "ged": 559,
      "Ġlaug": 560,
      "udden": 561,
      "Ġpe": 562,
      "fter": 563,
      "ĠMax": 564,
      "Ġcat": 565,
      "ive": 566,
      "Ġany": 567,
      "uddenly": 568,
      "Ġhow": 569,
      "Ġtr": 570,
      "ma": 571,
      "au": 572,
      "Ġsor": 573,
      "Ġmuch": 574,
      "Ġshow": 575,
      "ia": 576,
      "Ġtw": 577,
      "ish": 578,
      "ven": 579,
      "Ġsl": 580,
      "Ġhouse": 581,
      "But": 582,
      "and": 583,
      "ink": 584,
      "Ġsk": 585,
      "Ġrun": 586,
      "Ġmo": 587,
      "Ġop": 588,
      "Ġinto": 589,
      "Ġsun": 590,
      "ĠEvery": 591,
      "Ġclo": 592,
      "Ġtried": 593,
      "Ġhand": 594,
      "Ġinside": 595,
      "Ġcouldn": 596,
      "Ġtold": 597,
      "Ġproud": 598,
      "Ġen": 599,
      "Ġqu": 600,
      "Ġnever": 601,
      "Ġgave": 602,
      "Ġsorry": 603,
      "Ġwater": 604,
      "Ġor": 605,
      "Ġover": 606,
      "ump": 607,
      "ate": 608,
      "Ġif": 609,
      "ause": 610,
      "Ġexpl": 611,
      "ace": 612,
      "by": 613,
      "Ġheard": 614,
      "ank": 615,
      "Ġeat": 616,
      "ty": 617,
      "other": 618,
      "ion": 619,
      "ge": 620,
      "Ġplayed": 621,
      "dy": 622,
      "Ġroom": 623,
      "Ġthis": 624,
      "etter": 625,
      "Ġpick": 626,
      "Ġeach": 627,
      "Ġstr": 628,
      "Ġgre": 629,
      "here": 630,
      "Ġbecause": 631,
      "ĠSara": 632,
      "Ġpret": 633,
      "Ġjust": 634,
      "Tom": 635,
      "Ġwat": 636,
      "ĠWe": 637,
      "Ġcom": 638,
      "oth": 639,
      "Ġhugged": 640,
      "Ġoff": 641,
      "ak": 642,
      "Ġbox": 643,
      "ile": 644,
      "Ġneed": 645,
      "iz": 646,
      "Ġnice": 647,
      "Ġsmall": 648,
      "Ġlong": 649,
      "Ġjo": 650,
      "Ġbu": 651,
      "ĠAnna": 652,
      "Mom": 653,
      "Ġunt": 654,
      "ough": 655,
      "Ġmany": 656,
      "ort": 657,
      "ving": 658,
      "uc": 659,
      "Ġfo": 660,
      "Ġbear": 661,
      "Ġuntil": 662,
      "ĠJack": 663,
      "sel": 664,
      "ine": 665,
      "imal": 666,
      "Ġanimal": 667,
      "Ġtry": 668,
      "ild": 669,
      "'m": 670,
      "sed": 671,
      "Ġlearned": 672,
      "gry": 673,
      "Ġend": 674,
      "Ġbetter": 675,
      "Ġim": 676,
      "em": 677,
      "Ġcall": 678,
      "urt": 679,
      "Ġkind": 680,
      "Ġad": 681,
      "ft": 682,
      "vent": 683,
      "aut": 684,
      "ĠJo": 685,
      "Ġflow": 686,
      "Ġdre": 687,
      "He": 688,
      "ĠSo": 689,
      "Ġlove": 690,
      "urn": 691,
      "ull": 692,
      "Ġcle": 693,
      "ars": 694,
      "Ġbest": 695,
      "ber": 696,
      "pt": 697,
      "ady": 698,
      "Ġthanked": 699,
      "Ġeven": 700,
      "urp": 701,
      "Ġbeaut": 702,
      "Ġsky": 703,
      "Ġbra": 704,
      "arden": 705,
      "Ġgarden": 706,
      "Ġsn": 707,
      "lly": 708,
      "ĠAnd": 709,
      "Ġfast": 710,
      "ves": 711,
      "ĠHer": 712,
      "Ġcareful": 713,
      "Ġlaughed": 714,
      "Ġlots": 715,
      "self": 716,
      "Ġby": 717,
      "Ġfi": 718,
      "Ġche": 719,
      "lew": 720,
      "ĠMia": 721,
      "Ġjump": 722,
      "Ġdon": 723,
      "iny": 724,
      "Ġfam": 725,
      "Yes": 726,
      "Ġloud": 727,
      "Ġbeauti": 728,
      "Ġway": 729,
      "Ġbeautiful": 730,
      "wn": 731,
      "Ġte": 732,
      "Ġgl": 733,
      "ies": 734,
      "ĠC": 735,
      "Ġstill": 736,
      "Th": 737,
      "Ġra": 738,
      "ĠThen": 739,
      "Ġcome": 740,
      "Ġhard": 741,
      "Åĵ": 742,
      "Ġwo": 743,
      "ĠFrom": 744,
      "hn": 745,
      "ase": 746,
      "Ġlist": 747,
      "Ġstay": 748,
      "Ġanimals": 749,
      "ect": 750,
      "ĠHis": 751,
      "It": 752,
      "ning": 753,
      "Ġhurt": 754,
      "Ġsafe": 755,
      "Ġunder": 756,
      "ast": 757,
      "Ġrem": 758,
      "Ġcol": 759,
      "ct": 760,
      "hes": 761,
      "Ġboth": 762,
      "Ġlived": 763,
      "Ġtwo": 764,
      "Ġcu": 765,
      "ool": 766,
      "ople": 767,
      "ree": 768,
      "ane": 769,
      "Ġfamily": 770,
      "Ġbrave": 771,
      "Ġimp": 772,
      "ĠÃ¢": 773,
      "Ġits": 774,
      "Ġlet": 775,
      "Ġfin": 776,
      "When": 777,
      "Ġflew": 778,
      "Ġbad": 779,
      "ished": 780,
      "ob": 781,
      "Ġkept": 782,
      "ucy": 783,
      "urpr": 784,
      "Tim": 785,
      "Ġpeople": 786,
      "Ġwalked": 787,
      "igh": 788,
      "Ġstor": 789,
      "Ġsurpr": 790,
      "Ġcalled": 791,
      "ĠWhen": 792,
      "Ġbook": 793,
      "fore": 794,
      "be": 795,
      "Ġsoon": 796,
      "led": 797,
      "Ġred": 798,
      "kay": 799,
      "Ġfore": 800,
      "Ġdan": 801,
      "Ġfly": 802,
      "xt": 803,
      "Ġshould": 804,
      "ock": 805,
      "ised": 806,
      "Ġrock": 807,
      "Ġpic": 808,
      "Ġangry": 809,
      "Ġgoing": 810,
      "Ġshare": 811,
      "Ġclean": 812,
      "ĠP": 813,
      "Ġadvent": 814,
      "ummy": 815,
      "Ġopened": 816,
      "Ġexplore": 817,
      "No": 818,
      "Ġkeep": 819,
      "ip": 820,
      "Let": 821,
      "Ġnow": 822,
      "Ġbefore": 823,
      "illy": 824,
      "Ġpretty": 825,
      "âĤ¬â": 826,
      "Ġcon": 827,
      "Ġdoor": 828,
      "Ġcre": 829,
      "Ġwind": 830,
      "Ġdoll": 831,
      "ary": 832,
      "Ġsto": 833,
      "Ġshiny": 834,
      "Ġground": 835,
      "Ġreal": 836,
      "age": 837,
      "Ġdra": 838,
      "Ġnoise": 839,
      "Ġide": 840,
      "dded": 841,
      "Ġfar": 842,
      "Ġfr": 843,
      "ied": 844,
      "Ġturn": 845,
      "Ġfeeling": 846,
      "Ġcry": 847,
      "Ġey": 848,
      "oon": 849,
      "Ġwar": 850,
      "oy": 851,
      "Ġidea": 852,
      "thing": 853,
      "Ġcolor": 854,
      "les": 855,
      "Ġun": 856,
      "Ġnext": 857,
      "Ġpicked": 858,
      "Ġwalking": 859,
      "th": 860,
      "so": 861,
      "Ġwhile": 862,
      "Ħ¢": 863,
      "âĤ¬âĦ¢": 864,
      "imb": 865,
      "ĠLucy": 866,
      "Ben": 867,
      "Ġthr": 868,
      "Ġsmile": 869,
      "Ġma": 870,
      "Ġadventure": 871,
      "Ġclimb": 872,
      "Ġalso": 873,
      "iced": 874,
      "Ġbed": 875,
      "uch": 876,
      "ture": 877,
      "What": 878,
      "ger": 879,
      "ious": 880,
      "That": 881,
      "eet": 882,
      "joy": 883,
      "ff": 884,
      "Ġbeing": 885,
      "ted": 886,
      "Ġwr": 887,
      "ac": 888,
      "Ġclos": 889,
      "Ġnodded": 890,
      "Ġlooking": 891,
      "Ġstopped": 892,
      "Ġdel": 893,
      "Ġhas": 894,
      "kes": 895,
      "Ġdif": 896,
      "Ġgive": 897,
      "ember": 898,
      "Ġpicture": 899,
      "ting": 900,
      "Ġfood": 901,
      "ĠDad": 902,
      "Ġtruck": 903,
      "ĠSuddenly": 904,
      "ĠG": 905,
      "Ġwait": 906,
      "Ġeyes": 907,
      "ught": 908,
      "Ġever": 909,
      "Ġenjoy": 910,
      "Ġnoticed": 911,
      "Ġown": 912,
      "Ġquick": 913,
      "Ġafter": 914,
      "Ġgreat": 915,
      "able": 916,
      "maz": 917,
      "Thank": 918,
      "Ġamaz": 919,
      "aybe": 920,
      "ized": 921,
      "Ġbre": 922,
      "Ġremember": 923,
      "Ġwalk": 924,
      "Suddenly": 925,
      "Ġthink": 926,
      "Ġtow": 927,
      "Ġrain": 928,
      "Ġlisten": 929,
      "Ġrepl": 930,
      "Ġdis": 931,
      "Ġeveryone": 932,
      "Ġblue": 933,
      "Ġforest": 934,
      "Ġfish": 935,
      "Ġvo": 936,
      "Ġbro": 937,
      "Ġapp": 938,
      "irst": 939,
      "ĠSp": 940,
      "bbit": 941,
      "Ġimport": 942,
      "Ġhands": 943,
      "Ġflowers": 944,
      "Ġshowed": 945,
      "gan": 946,
      "Ġnear": 947,
      "She": 948,
      "Ġstrong": 949,
      "Ġac": 950,
      "Ġwork": 951,
      "Ġwonder": 952,
      "Ġde": 953,
      "Ġslide": 954,
      "Ġbright": 955,
      "Ġimportant": 956,
      "bbed": 957,
      "bye": 958,
      "Ġwatch": 959,
      "llow": 960,
      "Ġrabbit": 961,
      "Ġquickly": 962,
      "Ġshout": 963,
      "Ġhead": 964,
      "Ġwatched": 965,
      "Ġright": 966,
      "Ġstore": 967,
      "Ġsound": 968,
      "Ġreplied": 969,
      "Ġtal": 970,
      "fere": 971,
      "day": 972,
      "Ġus": 973,
      "Ġmean": 974,
      "Ġsqu": 975,
      "Ġdiffere": 976,
      "Ġsure": 977,
      "Ġye": 978,
      "ered": 979,
      "So": 980,
      "Ġplace": 981,
      "Ġuse": 982,
      "Ġboat": 983,
      "Ġwhere": 984,
      "Ġmor": 985,
      "ange": 986,
      "Ġbeen": 987,
      "Ġfollow": 988,
      "Ġdress": 989,
      "ath": 990,
      "Ġstick": 991,
      "ĠBob": 992,
      "Ġokay": 993,
      "Ġbecame": 994,
      "Ġtra": 995,
      "Ġgoodbye": 996,
      "Ġchild": 997,
      "lease": 998,
      "ng": 999,
      "Ġask": 1000,
      "ĠN": 1001,
      "Ġyell": 1002,
      "Ġcloser": 1003,
      "Ġmag": 1004,
      "Ġface": 1005,
      "Ġhigh": 1006,
      "Ġdifferent": 1007,
      "Ġwarm": 1008,
      "We": 1009,
      "Ġcuri": 1010,
      "Ġvoice": 1011,
      "co": 1012,
      "aught": 1013,
      "Ġcr": 1014,
      "Ġnight": 1015,
      "ached": 1016,
      "Ġforg": 1017,
      "Ġhop": 1018,
      "ĠR": 1019,
      "Ġbel": 1020,
      "Ġour": 1021,
      "ĠSpot": 1022,
      "ired": 1023,
      "leep": 1024,
      "ĠMommy": 1025,
      "Jo": 1026,
      "ĠSue": 1027,
      "Ġtell": 1028,
      "ount": 1029,
      "Ġcurious": 1030,
      "Ġpa": 1031,
      "more": 1032,
      "Ġanymore": 1033,
      "Ġcook": 1034,
      "Ġdoes": 1035,
      "Ġpu": 1036,
      "Ġcake": 1037,
      "Ġthree": 1038,
      "ndma": 1039,
      "Look": 1040,
      "Ġfav": 1041,
      "Ġopen": 1042,
      "itc": 1043,
      "Ġgrabbed": 1044,
      "ĠJohn": 1045,
      "Anna": 1046,
      "Ġfirst": 1047,
      "Sara": 1048,
      "Ġbutter": 1049,
      "Ġcont": 1050,
      "Her": 1051,
      "Ġz": 1052,
      "Ġam": 1053,
      "Ġpain": 1054,
      "imes": 1055,
      "Ġper": 1056,
      "Ġbit": 1057,
      "Ġlea": 1058,
      "Ġhelped": 1059,
      "Ġpull": 1060,
      "orn": 1061,
      "Ġba": 1062,
      "Ġbus": 1063,
      "Ġbirds": 1064,
      "ĠTh": 1065,
      "ĠEveryone": 1066,
      "Ġsweet": 1067,
      "unny": 1068,
      "Ġkid": 1069,
      "Ġfell": 1070,
      "Ġjumped": 1071,
      "After": 1072,
      "Ġhappened": 1073,
      "Ġonly": 1074,
      "ila": 1075,
      "Ġgrass": 1076,
      "isy": 1077,
      "iss": 1078,
      "ĠJane": 1079,
      "Ġmon": 1080,
      "ppy": 1081,
      "Ġbrother": 1082,
      "Ġhere": 1083,
      "Ġreached": 1084,
      "itchen": 1085,
      "Ġkitchen": 1086,
      "Ġsand": 1087,
      "Ġsing": 1088,
      "Ġglad": 1089,
      "Ġflo": 1090,
      "Ġrealized": 1091,
      "Can": 1092,
      "Ġblock": 1093,
      "Ġstory": 1094,
      "nts": 1095,
      "Ġfire": 1096,
      "ĠAs": 1097,
      "Ġru": 1098,
      "Ġdr": 1099,
      "Ġstop": 1100,
      "Ġthrough": 1101,
      "Ġrest": 1102,
      "ĠSarah": 1103,
      "Ġhaving": 1104,
      "Ġate": 1105,
      "Ġyummy": 1106,
      "Ġbeh": 1107,
      "zy": 1108,
      "Ġbegan": 1109,
      "Ġmum": 1110,
      "Ġready": 1111,
      "Ġsees": 1112,
      "where": 1113,
      "Ġreally": 1114,
      "ater": 1115,
      "Ġgame": 1116,
      "Ġtri": 1117,
      "Ġpare": 1118,
      "Ġhimself": 1119,
      "Ġprin": 1120,
      "Ġmess": 1121,
      "Ġsoft": 1122,
      "Ġdraw": 1123,
      "fully": 1124,
      "Ġworld": 1125,
      "Ġless": 1126,
      "Ġshouted": 1127,
      "ather": 1128,
      "Ġtired": 1129,
      "Ġmagic": 1130,
      "olly": 1131,
      "Ġlady": 1132,
      "Ġunderst": 1133,
      "Ġdone": 1134,
      "Ġfavor": 1135,
      "ins": 1136,
      "ĠLet": 1137,
      "Ġthing": 1138,
      "ster": 1139,
      "Ġfavorite": 1140,
      "Ġfill": 1141,
      "Ġmaking": 1142,
      "Ġseen": 1143,
      "Ġwaved": 1144,
      "uff": 1145,
      "Ġused": 1146,
      "Ġfix": 1147,
      "'re": 1148,
      "sh": 1149,
      "Ġcoming": 1150,
      "Ġhat": 1151,
      "ken": 1152,
      "Ġcut": 1153,
      "Ġste": 1154,
      "Ġbutterf": 1155,
      "Ġpond": 1156,
      "Ġtast": 1157,
      "Ġkids": 1158,
      "ĠJoe": 1159,
      "Ġbunny": 1160,
      "Ġdelic": 1161,
      "Mommy": 1162,
      "Ġworry": 1163,
      "Ġtop": 1164,
      "Ġparents": 1165,
      "Ġpart": 1166,
      "Ġduck": 1167,
      "Ġfunny": 1168,
      "Ġwhy": 1169,
      "Ġflower": 1170,
      "Ġpap": 1171,
      "bo": 1172,
      "Ġcatch": 1173,
      "ient": 1174,
      "Ġprom": 1175,
      "Ġmouse": 1176,
      "Ġname": 1177,
      "ĠDo": 1178,
      "ign": 1179,
      "John": 1180,
      "Ġpretend": 1181,
      "Ġswim": 1182,
      "mer": 1183,
      "iver": 1184,
      "air": 1185,
      "akes": 1186,
      "Ġanother": 1187,
      "rel": 1188,
      "ĠThat": 1189,
      "Ġfull": 1190,
      "Ġtouch": 1191,
      "ation": 1192,
      "As": 1193,
      "Ġpus": 1194,
      "Wow": 1195,
      "Ġcool": 1196,
      "Ġworked": 1197,
      "Timmy": 1198,
      "Ġlight": 1199,
      "aisy": 1200,
      "Ġsurprise": 1201,
      "Ġfro": 1202,
      "Ġlooks": 1203,
      "oney": 1204,
      "eddy": 1205,
      "Ġcars": 1206,
      "ĠCan": 1207,
      "Ġcried": 1208,
      "Ġgi": 1209,
      "Ġhopped": 1210,
      "Ġcra": 1211,
      "Ġhair": 1212,
      "Ġtrees": 1213,
      "Ġdro": 1214,
      "ards": 1215,
      "Ġgreen": 1216,
      "Ġspot": 1217,
      "Ġsmell": 1218,
      "Don": 1219,
      "Ġremembered": 1220,
      "Ġyears": 1221,
      "Ġdin": 1222,
      "Ġbag": 1223,
      "Ġrunning": 1224,
      "Ġlesson": 1225,
      "Ġsho": 1226,
      "Ġthank": 1227,
      "Ġset": 1228,
      "Ġ-": 1229,
      "ued": 1230,
      "ely": 1231,
      "andy": 1232,
      "hy": 1233,
      "Ġslow": 1234,
      "Ġread": 1235,
      "Ġwood": 1236,
      "Ġsleep": 1237,
      "Ġbehind": 1238,
      "Ġdark": 1239,
      "Ġhappily": 1240,
      "ssed": 1241,
      "Ġwindow": 1242,
      "Ġdri": 1243,
      "Ġneeded": 1244,
      "Ġsat": 1245,
      "Ġperf": 1246,
      "Ġcarefully": 1247,
      "Ġhold": 1248,
      "Ġfloor": 1249,
      "\".": 1250,
      "Ġyellow": 1251,
      "ĠIn": 1252,
      "Ġbow": 1253,
      "Ġcla": 1254,
      "Sam": 1255,
      "ul": 1256,
      "ren": 1257,
      "Ġdoing": 1258,
      "Ġfinished": 1259,
      "Ġwished": 1260,
      "Ġsurprised": 1261,
      "Ġcold": 1262,
      "Ġtall": 1263,
      "Ġhole": 1264,
      "aring": 1265,
      "Ġpaper": 1266,
      "ike": 1267,
      "Ġmove": 1268,
      "Ġenjoyed": 1269,
      "Ġbuy": 1270,
      "Ġheld": 1271,
      "Ġbutterfly": 1272,
      "Ġair": 1273,
      "inally": 1274,
      "ĠAfter": 1275,
      "Ġlost": 1276,
      "Ġblocks": 1277,
      "Ġlaugh": 1278,
      "Ġanything": 1279,
      "uit": 1280,
      "Ġdream": 1281,
      "Ġleft": 1282,
      "Ġice": 1283,
      "Ġarri": 1284,
      "Ġswing": 1285,
      "Ġdelicious": 1286,
      "Ġrel": 1287,
      "Ġlikes": 1288,
      "Ġherself": 1289,
      "Ġfair": 1290,
      "ens": 1291,
      "Ġlion": 1292,
      "Ġfrog": 1293,
      "ined": 1294,
      "Ġwrong": 1295,
      "Ġfollowed": 1296,
      "Ġhill": 1297,
      "Ġpre": 1298,
      "Ġchildren": 1299,
      "Ġcontin": 1300,
      "Ġhun": 1301,
      "ield": 1302,
      "Ġclose": 1303,
      "reed": 1304,
      "ream": 1305,
      "Ġhid": 1306,
      "Ġfriendly": 1307,
      "cess": 1308,
      "Ġforgot": 1309,
      "Ġhot": 1310,
      "Ġcast": 1311,
      "Ġable": 1312,
      "Ġhear": 1313,
      "Ġarrived": 1314,
      "lf": 1315,
      "ĠSally": 1316,
      "Ġdir": 1317,
      "Ġbuild": 1318,
      "Ġwonderful": 1319,
      "Ġbaby": 1320,
      "Ġfilled": 1321,
      "Ġarm": 1322,
      "Ġtight": 1323,
      "ĠBenny": 1324,
      "Ġunderstand": 1325,
      "Ġmight": 1326,
      "Ġgone": 1327,
      "asure": 1328,
      "Ġtable": 1329,
      "Ġbug": 1330,
      "Ġsnow": 1331,
      "Hell": 1332,
      "Hello": 1333,
      "Ġel": 1334,
      "Ġcreat": 1335,
      "Then": 1336,
      "Ġbooks": 1337,
      "Ġmat": 1338,
      "ds": 1339,
      "Ġelse": 1340,
      "ner": 1341,
      "Ġgent": 1342,
      "ich": 1343,
      "Ġcolors": 1344,
      "Ġcontinued": 1345,
      "Ġyes": 1346,
      "ĠEm": 1347,
      "ĠDaisy": 1348,
      "irrel": 1349,
      "Jack": 1350,
      "ey": 1351,
      "ĠNow": 1352,
      "Ġsong": 1353,
      "ross": 1354,
      "Ġstayed": 1355,
      "Ġplease": 1356,
      "Ġbroken": 1357,
      "Ġsomeone": 1358,
      "Ġleaves": 1359,
      "ĠThere": 1360,
      "av": 1361,
      "Ġwall": 1362,
      "Ġpat": 1363,
      "Ġfinally": 1364,
      "Ġenough": 1365,
      "From": 1366,
      "room": 1367,
      "Ġsquirrel": 1368,
      "Ġmorning": 1369,
      "Ġgetting": 1370,
      "Ġamazing": 1371,
      "Ġagreed": 1372,
      "Ġcount": 1373,
      "Ġvis": 1374,
      "sp": 1375,
      "Ġscary": 1376,
      "ask": 1377,
      "ash": 1378,
      "Ġbreak": 1379,
      "gon": 1380,
      "Ġpink": 1381,
      "Ġcomp": 1382,
      "Ġpoin": 1383,
      "Ġperfect": 1384,
      "'ll": 1385,
      "Ġwants": 1386,
      "Ġmoment": 1387,
      "At": 1388,
      "icy": 1389,
      "Ġcastle": 1390,
      "Ġgrandma": 1391,
      "Ġpi": 1392,
      "Ġju": 1393,
      "Ġfew": 1394,
      "Ġtrying": 1395,
      "ĠBilly": 1396,
      "row": 1397,
      "ĠLila": 1398,
      "Ġmar": 1399,
      "man": 1400,
      "oom": 1401,
      "Ġmother": 1402,
      "Ġothers": 1403,
      "Ġturned": 1404,
      "ama": 1405,
      "Ġpuppy": 1406,
      "ries": 1407,
      "Ġdinner": 1408,
      "rot": 1409,
      "Ġhungry": 1410,
      "oup": 1411,
      "ced": 1412,
      "Ġbeach": 1413,
      "OK": 1414,
      "Ġfight": 1415,
      "Ġwasn": 1416,
      "Ġwet": 1417,
      "Ġdaddy": 1418,
      "ĠK": 1419,
      "Ġmus": 1420,
      "Ġsometimes": 1421,
      "Ġjoy": 1422,
      "Ġcream": 1423,
      "Ġmet": 1424,
      "Ġstrange": 1425,
      "Ġsail": 1426,
      "Ġclimbed": 1427,
      "ĠThis": 1428,
      "ons": 1429,
      "oring": 1430,
      "Ġroll": 1431,
      "ence": 1432,
      "Ġbrought": 1433,
      "Ġpictures": 1434,
      "red": 1435,
      "Ġfur": 1436,
      "Ġwhite": 1437,
      "Ġfall": 1438,
      "Ġlistened": 1439,
      "ance": 1440,
      "uffy": 1441,
      "ee": 1442,
      "wl": 1443,
      "Ġspl": 1444,
      "Ġcookies": 1445,
      "Ġspark": 1446,
      "Ġballoon": 1447,
      "Ġclot": 1448,
      "ĠTommy": 1449,
      "Ġsear": 1450,
      "ated": 1451,
      "Ġclothes": 1452,
      "His": 1453,
      "ucky": 1454,
      "Ġeverything": 1455,
      "der": 1456,
      "ever": 1457,
      "This": 1458,
      "ĠTo": 1459,
      "amp": 1460,
      "ĠWhat": 1461,
      "Ġtalk": 1462,
      "Ġamazed": 1463,
      "Ġsmiles": 1464,
      "Ġwoods": 1465,
      "ĠMaybe": 1466,
      "Ġdeep": 1467,
      "Ġpol": 1468,
      "Ġride": 1469,
      "Ġtail": 1470,
      "ĠJen": 1471,
      "Ġthre": 1472,
      "pping": 1473,
      "Ġmakes": 1474,
      "Ġwaited": 1475,
      "ĠGra": 1476,
      "Ġalone": 1477,
      "ister": 1478,
      "eter": 1479,
      "ower": 1480,
      "os": 1481,
      "Ġsit": 1482,
      "key": 1483,
      "Ġgrow": 1484,
      "Ġpie": 1485,
      "Ġpet": 1486,
      "Ġvisit": 1487,
      "elc": 1488,
      "ctor": 1489,
      "med": 1490,
      "Ġlake": 1491,
      "Ġwon": 1492,
      "Ġdanger": 1493,
      "Ġmusic": 1494,
      "ott": 1495,
      "me": 1496,
      "Ġplan": 1497,
      "Ġtreat": 1498,
      "Ġleave": 1499,
      "Ġside": 1500,
      "zz": 1501,
      "Ġpulled": 1502,
      "Oh": 1503,
      "ope": 1504,
      "Ġsilly": 1505,
      "Ġcloud": 1506,
      "Ġland": 1507,
      "Ġfox": 1508,
      "Ġflying": 1509,
      "Ġfield": 1510,
      "ugg": 1511,
      "Ġhide": 1512,
      "Ġtowards": 1513,
      "thy": 1514,
      "ang": 1515,
      "Ġpromised": 1516,
      "Ġbelie": 1517,
      "Ġteddy": 1518,
      "Max": 1519,
      "ames": 1520,
      "ĠAmy": 1521,
      "cket": 1522,
      "Ġshared": 1523,
      "Ġsec": 1524,
      "ained": 1525,
      "Ġbigger": 1526,
      "ix": 1527,
      "Ġasks": 1528,
      "eces": 1529,
      "igg": 1530,
      "Ġowner": 1531,
      "Ġpieces": 1532,
      "ually": 1533,
      "Ġbran": 1534,
      "Ġslowly": 1535,
      "gs": 1536,
      "Ġworried": 1537,
      "ĠAll": 1538,
      "Ġmoney": 1539,
      "Ġcup": 1540,
      "Ġblank": 1541,
      "iet": 1542,
      "Ġgu": 1543,
      "Ġsuch": 1544,
      "Ġmoral": 1545,
      "Ġem": 1546,
      "Ġsister": 1547,
      "Ġtreasure": 1548,
      "ling": 1549,
      "Ġparty": 1550,
      "Ġmagical": 1551,
      "Ġpen": 1552,
      "Ġrace": 1553,
      "Ġnap": 1554,
      "fort": 1555,
      "cle": 1556,
      "Ġshap": 1557,
      "Ġgrate": 1558,
      "Ġblanket": 1559,
      "ises": 1560,
      "ased": 1561,
      "Ġfaster": 1562,
      "avy": 1563,
      "Ġplant": 1564,
      "Ġve": 1565,
      "Ġcolorful": 1566,
      "ze": 1567,
      "ĠJim": 1568,
      "Ġdance": 1569,
      "Ġwear": 1570,
      "ire": 1571,
      "sw": 1572,
      "orm": 1573,
      "Ġreach": 1574,
      "Ġmust": 1575,
      "Ġgrateful": 1576,
      "Ġriver": 1577,
      "Ġansw": 1578,
      "Ġquiet": 1579,
      "Ġmost": 1580,
      "Ġthinks": 1581,
      "unch": 1582,
      "Ġliving": 1583,
      "Ġgif": 1584,
      "ol": 1585,
      "Ġjob": 1586,
      "Maybe": 1587,
      "Ġcho": 1588,
      "Ġeverywhere": 1589,
      "less": 1590,
      "Ġsnack": 1591,
      "Ġpaint": 1592,
      "app": 1593,
      "Ġbott": 1594,
      "Ġele": 1595,
      "Okay": 1596,
      "Ġpro": 1597,
      "Ġruns": 1598,
      "Ġcandy": 1599,
      "Ġpot": 1600,
      "ph": 1601,
      "up": 1602,
      "Ġwelc": 1603,
      "Ġmonster": 1604,
      "ĠFl": 1605,
      "Ġjoin": 1606,
      "Ġdragon": 1607,
      "Ġje": 1608,
      "set": 1609,
      "Ġhelping": 1610,
      "ming": 1611,
      "outh": 1612,
      "Ġbar": 1613,
      "Ġbike": 1614,
      "Ġacross": 1615,
      "Ġfarmer": 1616,
      "Ġdolls": 1617,
      "Ġstepped": 1618,
      "Ġatt": 1619,
      "Ġmouth": 1620,
      "Ġblack": 1621,
      "bble": 1622,
      "Ġcarrot": 1623,
      "Ġtrain": 1624,
      "ĠMolly": 1625,
      "ipped": 1626,
      "Ġbroke": 1627,
      "ĠJill": 1628,
      "ere": 1629,
      "Ġprincess": 1630,
      "Ġwouldn": 1631,
      "Ġhig": 1632,
      "Ġsame": 1633,
      "ident": 1634,
      "Ġsmart": 1635,
      "Ġdangerous": 1636,
      "Ġscream": 1637,
      "Ġwin": 1638,
      "Ġdisapp": 1639,
      "Ġheal": 1640,
      "Ġspr": 1641,
      "Ġacc": 1642,
      "eared": 1643,
      "Ġcrying": 1644,
      "Ġheavy": 1645,
      "ear": 1646,
      "Ġmix": 1647,
      "ored": 1648,
      "Ġsign": 1649,
      "Ġbee": 1650,
      "Sure": 1651,
      "Ġbowl": 1652,
      "Ġbelieve": 1653,
      "Ġclosed": 1654,
      "Ġwords": 1655,
      "Ġdoctor": 1656,
      "Ġdirty": 1657,
      "ĠDaddy": 1658,
      "Ġcoll": 1659,
      "Ġstre": 1660,
      "Ġteac": 1661,
      "iting": 1662,
      "Ġstuck": 1663,
      "Ġfruit": 1664,
      "Ġthrew": 1665,
      "Why": 1666,
      "Ġbutt": 1667,
      "Ġeating": 1668,
      "Ġbite": 1669,
      "chool": 1670,
      "Ġtown": 1671,
      "Ġmonkey": 1672,
      "Ġbath": 1673,
      "Ġbuck": 1674,
      "ĠMr": 1675,
      "Ġhigher": 1676,
      "Ġheart": 1677,
      "Ġcheered": 1678,
      "Ġtwins": 1679,
      "de": 1680,
      "br": 1681,
      "ord": 1682,
      "Ġschool": 1683,
      "Ġneigh": 1684,
      "Ġstand": 1685,
      "ventually": 1686,
      "Ġfairy": 1687,
      "Ġpers": 1688,
      "Ġclapped": 1689,
      "Ġneighb": 1690,
      "Ġpack": 1691,
      "umb": 1692,
      "Ġsuddenly": 1693,
      "cked": 1694,
      "Hi": 1695,
      "Ġtower": 1696,
      "asket": 1697,
      "Ġteacher": 1698,
      "Ġhit": 1699,
      "Ġlonger": 1700,
      "Ġpast": 1701,
      "Ġwithout": 1702,
      "Ġbasket": 1703,
      "Ġdry": 1704,
      "ract": 1705,
      "ier": 1706,
      "Ġmin": 1707,
      "Ġaccident": 1708,
      "Ġfree": 1709,
      "Ġtoday": 1710,
      "Ġcray": 1711,
      "Ġdrove": 1712,
      "Ġhoped": 1713,
      "Ġwings": 1714,
      "Mia": 1715,
      "Ġsmo": 1716,
      "Ġpushed": 1717,
      "Ġyard": 1718,
      "Ġgentle": 1719,
      "Finally": 1720,
      "Ġcour": 1721,
      "ney": 1722,
      "cy": 1723,
      "Ġfeels": 1724,
      "Ġpocket": 1725,
      "ass": 1726,
      "ors": 1727,
      "Ġhappen": 1728,
      "Ġjour": 1729,
      "Ġforget": 1730,
      "Ġfence": 1731,
      "Ġbrown": 1732,
      "Ġchair": 1733,
      "Ġlon": 1734,
      "orrow": 1735,
      "ead": 1736,
      "Ġgames": 1737,
      "vel": 1738,
      "Ġalong": 1739,
      "Ġsea": 1740,
      "Ġswings": 1741,
      "Ġcourse": 1742,
      "Ġcorn": 1743,
      "Ġsang": 1744,
      "Ġexplained": 1745,
      "ts": 1746,
      "Ġlonely": 1747,
      "Ġinst": 1748,
      "Ġadventures": 1749,
      "Ġpiece": 1750,
      "Ġsinging": 1751,
      "Ġsecret": 1752,
      "ment": 1753,
      "ountain": 1754,
      "Ġwelcome": 1755,
      "Ġupset": 1756,
      "Ġowl": 1757,
      "issed": 1758,
      "Ġswam": 1759,
      "Ġnoises": 1760,
      "Ġbring": 1761,
      "Ġmoved": 1762,
      "Ġapple": 1763,
      "Ġyoung": 1764,
      "Ġshoes": 1765,
      "Ġstories": 1766,
      "ward": 1767,
      "yard": 1768,
      "Ġtrou": 1769,
      "Ġplac": 1770,
      "Ġbackyard": 1771,
      "Ġstars": 1772,
      "Ġtaking": 1773,
      "ho": 1774,
      "Ġexploring": 1775,
      "Ġdist": 1776,
      "ĠEmma": 1777,
      "ible": 1778,
      "itting": 1779,
      "phant": 1780,
      "Ġturns": 1781,
      "Ġlate": 1782,
      "Ġthrow": 1783,
      "Ġrocks": 1784,
      "Ġdropped": 1785,
      "oun": 1786,
      "Ġseemed": 1787,
      "Ġtiny": 1788,
      "Ġexp": 1789,
      "Ġwhe": 1790,
      "ĠMary": 1791,
      "fused": 1792,
      "Ġlunch": 1793,
      "Ġelephant": 1794,
      "ches": 1795,
      "Ġbucket": 1796,
      "Ġneck": 1797,
      "Ġsoup": 1798,
      "Ġnaught": 1799,
      "Ġbelong": 1800,
      "bby": 1801,
      "Ġshop": 1802,
      "Ġjar": 1803,
      "Ġnaughty": 1804,
      "Ġshook": 1805,
      "bow": 1806,
      "Ġwise": 1807,
      "Ġcaught": 1808,
      "Ġrelie": 1809,
      "Ġca": 1810,
      "Ġmail": 1811,
      "Ġes": 1812,
      "ek": 1813,
      "ush": 1814,
      "Ġnearby": 1815,
      "ĠFluffy": 1816,
      "Ġhugs": 1817,
      "Ġthough": 1818,
      "Ġwoke": 1819,
      "ocked": 1820,
      "Ġdes": 1821,
      "Ġwell": 1822,
      "Ġwish": 1823,
      "Ġ3": 1824,
      "ape": 1825,
      "Ġdrink": 1826,
      "Ġstreet": 1827,
      "Ġorange": 1828,
      "Ġph": 1829,
      "Ġyear": 1830,
      "Ġben": 1831,
      "ions": 1832,
      "Ġpig": 1833,
      "Ġbusy": 1834,
      "llo": 1835,
      "adow": 1836,
      "ces": 1837,
      "Ġkey": 1838,
      "Ġsu": 1839,
      "Lila": 1840,
      "Ġmiss": 1841,
      "Ġinv": 1842,
      "Ġcou": 1843,
      "sy": 1844,
      "cing": 1845,
      "Ġrainbow": 1846,
      "Ġbat": 1847,
      "Ġpurp": 1848,
      "ung": 1849,
      "ining": 1850,
      "Ġstar": 1851,
      "Ġtom": 1852,
      "Ġjuice": 1853,
      "aughter": 1854,
      "col": 1855,
      "ity": 1856,
      "Ġhuge": 1857,
      "ĠGrandma": 1858,
      "Ġob": 1859,
      "Ġforever": 1860,
      "ĠInside": 1861,
      "Ġshapes": 1862,
      "to": 1863,
      "Ġbranch": 1864,
      "ours": 1865,
      "Ġfarm": 1866,
      "Ġcow": 1867,
      "Do": 1868,
      "Ġarms": 1869,
      "weet": 1870,
      "vered": 1871,
      "Ġaf": 1872,
      "idge": 1873,
      "ĠFinally": 1874,
      "Ġnest": 1875,
      "Ġstu": 1876,
      "cer": 1877,
      "Ġmark": 1878,
      "And": 1879,
      "Ġpurple": 1880,
      "Ġnose": 1881,
      "Ġsick": 1882,
      "Ġround": 1883,
      "shine": 1884,
      "Ġrelieved": 1885,
      "Ġpeace": 1886,
      "Ġcarry": 1887,
      "Ġwondered": 1888,
      "Ġfit": 1889,
      "Ġdaughter": 1890,
      "ittens": 1891,
      "Ġlife": 1892,
      "Ġwhist": 1893,
      "Ġswimming": 1894,
      "Ġboun": 1895,
      "Ġresp": 1896,
      "Ġnothing": 1897,
      "Ġgift": 1898,
      "ail": 1899,
      "Ġexciting": 1900,
      "Ġsitting": 1901,
      "Ġcir": 1902,
      "ĠThank": 1903,
      "pper": 1904,
      "Ġmine": 1905,
      "Ġret": 1906,
      "Ġsunshine": 1907,
      "raid": 1908,
      "Ġmad": 1909,
      "Ġafraid": 1910,
      "Ġpatient": 1911,
      "Ġkite": 1912,
      "Ġjourney": 1913,
      "Ġmil": 1914,
      "gg": 1915,
      "itch": 1916,
      "Ġletter": 1917,
      "fish": 1918,
      "Ġcreature": 1919,
      "ose": 1920,
      "sting": 1921,
      "Ġonto": 1922,
      "uched": 1923,
      "Ġtouched": 1924,
      "thday": 1925,
      "Ġdays": 1926,
      "Ġreturn": 1927,
      "Ġhello": 1928,
      "ese": 1929,
      "ĠO": 1930,
      "Ġdisco": 1931,
      "let": 1932,
      "ĠSoon": 1933,
      "Ġtakes": 1934,
      "Ġdriver": 1935,
      "Ġaccidentally": 1936,
      "Ġintere": 1937,
      "Ġking": 1938,
      "Ġlaughing": 1939,
      "Ġspoon": 1940,
      "Ġcute": 1941,
      "Ġfan": 1942,
      "itten": 1943,
      "Ġpower": 1944,
      "ĠSammy": 1945,
      "Ġholding": 1946,
      "Ġsounds": 1947,
      "Ġcomes": 1948,
      "Ġlift": 1949,
      "Ġcollect": 1950,
      "Ġcoat": 1951,
      "Ġshell": 1952,
      "Ġcave": 1953,
      "Ġcomfort": 1954,
      "Ġgigg": 1955,
      "Ġband": 1956,
      "ness": 1957,
      "Later": 1958,
      "Ġsunny": 1959,
      "ĠMama": 1960,
      "sc": 1961,
      "Ġinstead": 1962,
      "board": 1963,
      "Ġinc": 1964,
      "Ġcozy": 1965,
      "Ġwra": 1966,
      "irt": 1967,
      "Ġact": 1968,
      "Ġfing": 1969,
      "Ġear": 1970,
      "Ġbench": 1971,
      "Ġbirthday": 1972,
      "Ġce": 1973,
      "Ġhor": 1974,
      "Ġmist": 1975,
      "Ġsearched": 1976,
      "Ġpointed": 1977,
      "Ġgrab": 1978,
      "ped": 1979,
      "Ġlucky": 1980,
      "Ġsmiling": 1981,
      "Ġimag": 1982,
      "Ġpromise": 1983,
      "Ġgather": 1984,
      "og": 1985,
      "Ġbought": 1986,
      "Ġeas": 1987,
      "ten": 1988,
      "Ġwatching": 1989,
      "alm": 1990,
      "round": 1991,
      "Ġspo": 1992,
      "Ġmilk": 1993,
      "Ġsandw": 1994,
      "ize": 1995,
      "Ġpres": 1996,
      "Of": 1997,
      "Ġpudd": 1998,
      "Ġstorm": 1999,
      "Ġkick": 2000,
      "Ġanyone": 2001,
      "Ġwide": 2002,
      "Ġtasty": 2003,
      "ball": 2004,
      "oman": 2005,
      "Ġcheese": 2006,
      "Ġlater": 2007,
      "ove": 2008,
      "gged": 2009,
      "Ġhope": 2010,
      "Ġspin": 2011,
      "blem": 2012,
      "unt": 2013,
      "Ġwoman": 2014,
      "Hey": 2015,
      "Ġtalked": 2016,
      "Ġproblem": 2017,
      "eth": 2018,
      "Bob": 2019,
      "Ġent": 2020,
      "Ġroad": 2021,
      "arp": 2022,
      "Ġbread": 2023,
      "Tommy": 2024,
      "Ġhealthy": 2025,
      "Ġshining": 2026,
      "Ġadm": 2027,
      "Ġsuc": 2028,
      "Ġtrouble": 2029,
      "Ġbutton": 2030,
      "Ġzoom": 2031,
      "Ġsharp": 2032,
      "ub": 2033,
      "Ġperson": 2034,
      "Ġspid": 2035,
      "Ġbottle": 2036,
      "aur": 2037,
      "Ġinteresting": 2038,
      "Ġrope": 2039,
      "Ġplane": 2040,
      "Ġgives": 2041,
      "Ġbush": 2042,
      "els": 2043,
      "Ġlovely": 2044,
      "ĠTweet": 2045,
      "Ġsaf": 2046,
      "Ġclouds": 2047,
      "ĠCome": 2048,
      "Ġpresent": 2049,
      "owed": 2050,
      "Ġpract": 2051,
      "Ġhoney": 2052,
      "ĠJimmy": 2053,
      "Ġmatter": 2054,
      "Ġquest": 2055,
      "Ġsmelled": 2056,
      "Ġclever": 2057,
      "isa": 2058,
      "Ġwhole": 2059,
      "Ġmyster": 2060,
      "Ġvill": 2061,
      "ĠWith": 2062,
      "Ġwhich": 2063,
      "Ġap": 2064,
      "ont": 2065,
      "Ġspotted": 2066,
      "Ġducks": 2067,
      "Ġmeet": 2068,
      "Ġprot": 2069,
      "Ġrolled": 2070,
      "ndp": 2071,
      "Ġcheer": 2072,
      "Ġkiss": 2073,
      "epend": 2074,
      "Ġsur": 2075,
      "Ġapples": 2076,
      "Ġappeared": 2077,
      "Ġhon": 2078,
      "Ġtasted": 2079,
      "Ġpath": 2080,
      "Ġgiant": 2081,
      "Ġcrayons": 2082,
      "Ġhorse": 2083,
      "Ġpop": 2084,
      "Ġorgan": 2085,
      "Ġfront": 2086,
      "Ġzoo": 2087,
      "Ġprotect": 2088,
      "Ġpile": 2089,
      "ond": 2090,
      "cean": 2091,
      "Ġputs": 2092,
      "Ġocean": 2093,
      "oose": 2094,
      "een": 2095,
      "Ġpar": 2096,
      "Ġdanced": 2097,
      "lla": 2098,
      "ching": 2099,
      "Ġlay": 2100,
      "Ġfeather": 2101,
      "Ġsnowman": 2102,
      "Lucy": 2103,
      "Ġmach": 2104,
      "ale": 2105,
      "Every": 2106,
      "erly": 2107,
      "Ġthin": 2108,
      "Ġtrip": 2109,
      "Ġshr": 2110,
      "amed": 2111,
      "Ġtun": 2112,
      "Ġeag": 2113,
      "Ġneighbor": 2114,
      "Ġpuzz": 2115,
      "ÅĵI": 2116,
      "Ġloves": 2117,
      "Ġplaces": 2118,
      "Molly": 2119,
      "Good": 2120,
      "Ġdi": 2121,
      "eb": 2122,
      "izz": 2123,
      "Ġsack": 2124,
      "Ġwearing": 2125,
      "Ġasleep": 2126,
      "Ġseat": 2127,
      "Jim": 2128,
      "Ġmud": 2129,
      "In": 2130,
      "Ġimpre": 2131,
      "nic": 2132,
      "Ġminut": 2133,
      "Ġspent": 2134,
      "Ġpill": 2135,
      "ular": 2136,
      "Ġwild": 2137,
      "Ġmed": 2138,
      "Ġsplas": 2139,
      "Ġanswer": 2140,
      "Just": 2141,
      "itty": 2142,
      "Ġpicnic": 2143,
      "Ġemb": 2144,
      "Ġval": 2145,
      "nn": 2146,
      "ometimes": 2147,
      "Ġcorner": 2148,
      "la": 2149,
      "Ġsnake": 2150,
      "Ġfoot": 2151,
      "Ġbuilding": 2152,
      "Ġscreamed": 2153,
      "Ġslid": 2154,
      "ert": 2155,
      "ndpa": 2156,
      "Ġmind": 2157,
      "Ġsupp": 2158,
      "Ġrespect": 2159,
      "cks": 2160,
      "Ġdirt": 2161,
      "Ġlad": 2162,
      "ĠMittens": 2163,
      "Ġgently": 2164,
      "umber": 2165,
      "arge": 2166,
      "Ġoven": 2167,
      "ĠEmily": 2168,
      "Come": 2169,
      "Ġsal": 2170,
      "St": 2171,
      "hile": 2172,
      "Ġmountain": 2173,
      "Ġconfused": 2174,
      "Ġspider": 2175,
      "Ġbark": 2176,
      "ones": 2177,
      "Ġdelight": 2178,
      "Ġlive": 2179,
      "Ġwrite": 2180,
      "Ġcart": 2181,
      "Ġcard": 2182,
      "Ġworm": 2183,
      "Ġpass": 2184,
      "Ġremind": 2185,
      "Ġfurry": 2186,
      "Ġign": 2187,
      "Ġembar": 2188,
      "Ġeventually": 2189,
      "Ġwhenever": 2190,
      "Ġembarra": 2191,
      "Ġhelpful": 2192,
      "lex": 2193,
      "Ġtid": 2194,
      "Ġser": 2195,
      "Ġcookie": 2196,
      "Ġphone": 2197,
      "Ġbell": 2198,
      "Ġcouch": 2199,
      "Soon": 2200,
      "Ġrec": 2201,
      "Ġfeet": 2202,
      "Ġfaces": 2203,
      "Ġtalking": 2204,
      "Mum": 2205,
      "Ġgoes": 2206,
      "Ġladder": 2207,
      "Ġlast": 2208,
      "Ġcoin": 2209,
      "Ġteach": 2210,
      "Ġchick": 2211,
      "ex": 2212,
      "Ġblew": 2213,
      "unk": 2214,
      "Ġwave": 2215,
      "Ġsmooth": 2216,
      "Ġring": 2217,
      "ĠSt": 2218,
      "mo": 2219,
      "Ġpaw": 2220,
      "bbles": 2221,
      "als": 2222,
      "Ġban": 2223,
      "Ġpan": 2224,
      "Ġcolour": 2225,
      "ĠGo": 2226,
      "Ġpretended": 2227,
      "read": 2228,
      "Ġcalm": 2229,
      "Ġrob": 2230,
      "Ġshy": 2231,
      "Ġtries": 2232,
      "Ġdrive": 2233,
      "Ġpool": 2234,
      "ife": 2235,
      "Ġmachine": 2236,
      "Ġlarge": 2237,
      "Ġstret": 2238,
      "Ġtool": 2239,
      "Ġwaiting": 2240,
      "Ġforgive": 2241,
      "Ġhiding": 2242,
      "Ġspread": 2243,
      "Ġspray": 2244,
      "Ġash": 2245,
      "ĠEverywhere": 2246,
      "Ġfinish": 2247,
      "lebr": 2248,
      "Ġcoo": 2249,
      "ato": 2250,
      "Ġpush": 2251,
      "Ġchocol": 2252,
      "Ġvillage": 2253,
      "Ġcelebr": 2254,
      "Ġpour": 2255,
      "Ġsel": 2256,
      "Ġstra": 2257,
      "Ġtreats": 2258,
      "Ġtomorrow": 2259,
      "Ġant": 2260,
      "Ġple": 2261,
      "ĠHow": 2262,
      "Ġfixed": 2263,
      "Ġfighting": 2264,
      "ĠJenny": 2265,
      "Ġhum": 2266,
      "Ġsol": 2267,
      "Ġcloth": 2268,
      "Ġteeth": 2269,
      "Ġchased": 2270,
      "Ġrude": 2271,
      "Ġkitten": 2272,
      "Ġtidy": 2273,
      "ĠAl": 2274,
      "Ġrobot": 2275,
      "old": 2276,
      "Ġforward": 2277,
      "urse": 2278,
      "Ġbanan": 2279,
      "oph": 2280,
      "Ġrep": 2281,
      "Ġcann": 2282,
      "Ġemp": 2283,
      "Ġembarrassed": 2284,
      "Ġbarked": 2285,
      "Ġknee": 2286,
      "ĠCh": 2287,
      "Ġsongs": 2288,
      "Ġshirt": 2289,
      "Ġempty": 2290,
      "Ġrocket": 2291,
      "ator": 2292,
      "ighed": 2293,
      "Ġspe": 2294,
      "Ġfold": 2295,
      "Ġcarrots": 2296,
      "inted": 2297,
      "Ġpuddle": 2298,
      "aul": 2299,
      "Ġpeaceful": 2300,
      "ĠJust": 2301,
      "Ġbugs": 2302,
      "Ġstep": 2303,
      "Ġwhistle": 2304,
      "Ġleaf": 2305,
      "Ġtightly": 2306,
      "Ġcannot": 2307,
      "Ġtaste": 2308,
      "Ġwore": 2309,
      "Ġgen": 2310,
      "Ġnet": 2311,
      "ungle": 2312,
      "Ġstring": 2313,
      "Ġselfish": 2314,
      "getable": 2315,
      "Ġstir": 2316,
      "ult": 2317,
      "Ġgrew": 2318,
      "Ġcreative": 2319,
      "Ġjungle": 2320,
      "Ġmeadow": 2321,
      "Ġvegetable": 2322,
      "Ġsave": 2323,
      "iger": 2324,
      "Ġstone": 2325,
      "Ġchocolate": 2326,
      "ĠSometimes": 2327,
      "ĠJake": 2328,
      "box": 2329,
      "Ġtrust": 2330,
      "arm": 2331,
      "Ġwip": 2332,
      "My": 2333,
      "Ġcrab": 2334,
      "Ġplate": 2335,
      "Ġsparkly": 2336,
      "Ġdisappo": 2337,
      "den": 2338,
      "dge": 2339,
      "Ġtea": 2340,
      "Ġdeter": 2341,
      "umpy": 2342,
      "Ġdeterm": 2343,
      "ground": 2344,
      "ĠLisa": 2345,
      "Ġspicy": 2346,
      "Ġknocked": 2347,
      "Ġ'": 2348,
      "Ġsheep": 2349,
      "Now": 2350,
      "Ġneckl": 2351,
      "Please": 2352,
      "ird": 2353,
      "Ġsour": 2354,
      "ĠOn": 2355,
      "Ġmeant": 2356,
      "Ġshelf": 2357,
      "most": 2358,
      "Ġmaybe": 2359,
      "Dad": 2360,
      "Ġwash": 2361,
      "Ġlem": 2362,
      "Ġjumping": 2363,
      "ned": 2364,
      "Ġmoon": 2365,
      "Ġlegs": 2366,
      "elly": 2367,
      "airs": 2368,
      "Ġhidden": 2369,
      "Ġhours": 2370,
      "Ġwhis": 2371,
      "Ġlanded": 2372,
      "Ġalmost": 2373,
      "Ġdecor": 2374,
      "ustr": 2375,
      "Ġhonest": 2376,
      "ying": 2377,
      "ĠMum": 2378,
      "Ġknowing": 2379,
      "To": 2380,
      "Ġmissed": 2381,
      "Ġdisappointed": 2382,
      "Ġstood": 2383,
      "Ġav": 2384,
      "'d": 2385,
      "aking": 2386,
      "Ġpri": 2387,
      "ano": 2388,
      "Ġline": 2389,
      "Ġgun": 2390,
      "dle": 2391,
      "Ġnut": 2392,
      "Ġfear": 2393,
      "Ġpin": 2394,
      "Ġbreath": 2395,
      "ĠPlease": 2396,
      "ĠSome": 2397,
      "Ġsharing": 2398,
      "Ġcarried": 2399,
      "Ġpizz": 2400,
      "kin": 2401,
      "ĠEven": 2402,
      "Ġscre": 2403,
      "Mama": 2404,
      "Ġhears": 2405,
      "ĠLe": 2406,
      "Ġprince": 2407,
      "Ġgener": 2408,
      "Ġsnacks": 2409,
      "Ġgroup": 2410,
      "Ġtells": 2411,
      "ĠTV": 2412,
      "Ġgray": 2413,
      "ian": 2414,
      "Ġsplash": 2415,
      "Ġcro": 2416,
      "Ġfrustr": 2417,
      "Ġshore": 2418,
      "erp": 2419,
      "Ġreturned": 2420,
      "Ġscar": 2421,
      "Ġpay": 2422,
      "erry": 2423,
      "Ġunderstood": 2424,
      "Ġthankful": 2425,
      "Ġmysterious": 2426,
      "ĠTheir": 2427,
      "Ġfancy": 2428,
      "gly": 2429,
      "Ġgold": 2430,
      "Ġstanding": 2431,
      "Ġbal": 2432,
      "Ġplants": 2433,
      "ony": 2434,
      "Ġmessy": 2435,
      "Ġwhisp": 2436,
      "Ġsticks": 2437,
      "Ġnecklace": 2438,
      "Be": 2439,
      "Ġugly": 2440,
      "ĠTeddy": 2441,
      "obby": 2442,
      "Ġsuccess": 2443,
      "ĠTogether": 2444,
      "orry": 2445,
      "Ġsleepy": 2446,
      "Ġseed": 2447,
      "Ġsandwich": 2448,
      "lower": 2449,
      "vous": 2450,
      "Ġfrustrated": 2451,
      "Ġjew": 2452,
      "Ġbedroom": 2453,
      "Ġyelled": 2454,
      "Ġvan": 2455,
      "Ġtest": 2456,
      "era": 2457,
      "Ġdrew": 2458,
      "Ġpizza": 2459,
      "Ġtaught": 2460,
      "Ġgathered": 2461,
      "Ġtwirl": 2462,
      "Ġpuzzle": 2463,
      "Ġblow": 2464,
      "ital": 2465,
      "Ġcirc": 2466,
      "Ġgas": 2467,
      "Ġspoil": 2468,
      "Ġwolf": 2469,
      "usie": 2470,
      "Ġpowerful": 2471,
      "ĠAnn": 2472,
      "Ġburn": 2473,
      "ork": 2474,
      "Ġfig": 2475,
      "Ġdetermined": 2476,
      "Ġmot": 2477,
      "Ġhosp": 2478,
      "ser": 2479,
      "Ġsna": 2480,
      "itter": 2481,
      "Ġpolice": 2482,
      "Ġhospital": 2483,
      "sist": 2484,
      "Ġwaves": 2485,
      "hin": 2486,
      "Ġmummy": 2487,
      "Ġcomfortable": 2488,
      "Ġpillow": 2489,
      "Ġexcite": 2490,
      "pack": 2491,
      "Ġeasy": 2492,
      "Ġner": 2493,
      "llie": 2494,
      "There": 2495,
      "Ġashamed": 2496,
      "Ġgenerous": 2497,
      "ual": 2498,
      "Sarah": 2499,
      "Ġclass": 2500,
      "ensive": 2501,
      "Ġhur": 2502,
      "Ġrad": 2503,
      "ĠWhy": 2504,
      "iff": 2505,
      "Ġfil": 2506,
      "Ġdeer": 2507,
      "Ġpassed": 2508,
      "Ġexpensive": 2509,
      "ĠZ": 2510,
      "Jane": 2511,
      "Ġpoor": 2512,
      "ĠPeter": 2513,
      "Ġhel": 2514,
      "Ġnervous": 2515,
      "Ġthese": 2516,
      "osaur": 2517,
      "Ġminutes": 2518,
      "Ġcaterp": 2519,
      "Ġcaterpill": 2520,
      "Ġdancing": 2521,
      "Ġtick": 2522,
      "Ġoften": 2523,
      "izzy": 2524,
      "Ġlit": 2525,
      "ĠJohnny": 2526,
      "Stop": 2527,
      "Ġexcitement": 2528,
      "Ġesc": 2529,
      "light": 2530,
      "Ġgate": 2531,
      "Ġexam": 2532,
      "Ġtaken": 2533,
      "Ġreg": 2534,
      "uce": 2535,
      "Ġcries": 2536,
      "Ġbridge": 2537,
      "ĠDon": 2538,
      "work": 2539,
      "Ġspend": 2540,
      "Ġpleased": 2541,
      "mb": 2542,
      "Ġseek": 2543,
      "iddle": 2544,
      "Ġknight": 2545,
      "Ġnods": 2546,
      "Ġpolite": 2547,
      "oop": 2548,
      "Ġpacked": 2549,
      "Ġship": 2550,
      "Ġpir": 2551,
      "iness": 2552,
      "Ġfeed": 2553,
      "arl": 2554,
      "Ġsold": 2555,
      "Ġdinosaur": 2556,
      "ina": 2557,
      "Ġcri": 2558,
      "Ġbone": 2559,
      "Ġscr": 2560,
      "Ġsighed": 2561,
      "illed": 2562,
      "Ġvase": 2563,
      "ote": 2564,
      "ĠBe": 2565,
      "Ġbored": 2566,
      "af": 2567,
      "Ġsaved": 2568,
      "Ġnumber": 2569,
      "Ġflag": 2570,
      "ĠBr": 2571,
      "Ġanswered": 2572,
      "Ġvegetables": 2573,
      "ete": 2574,
      "Ġrelax": 2575,
      "Ġtent": 2576,
      "Ġleg": 2577,
      "Ġchest": 2578,
      "Ġglass": 2579,
      "Ġtrue": 2580,
      "Ġweak": 2581,
      "Ġcaterpillar": 2582,
      "Ġwander": 2583,
      "Ġflut": 2584,
      "Ġworking": 2585,
      "ecially": 2586,
      "Where": 2587,
      "Ġjelly": 2588,
      "Ġcloset": 2589,
      "issors": 2590,
      "Ġfinger": 2591,
      "Ġhopping": 2592,
      "Ġcontent": 2593,
      "Ġsmelly": 2594,
      "Ġboring": 2595,
      "Ġstuff": 2596,
      "Ġclown": 2597,
      "Ġgrumpy": 2598,
      "Ġchew": 2599,
      "Ġscissors": 2600,
      "Ġasking": 2601,
      "Ġgar": 2602,
      "selves": 2603,
      "oof": 2604,
      "Ġmiddle": 2605,
      "Ġhang": 2606,
      "ushed": 2607,
      "pecially": 2608,
      "Ġscarf": 2609,
      "Ġmatch": 2610,
      "Ġespecially": 2611,
      "Ġyourself": 2612,
      "body": 2613,
      "Ġcrawl": 2614,
      "Ġteam": 2615,
      "Ġdrum": 2616,
      "Ġgiggled": 2617,
      "Ġplayground": 2618,
      "Ġwagged": 2619,
      "Ġwis": 2620,
      "Ġmedic": 2621,
      "Ġsight": 2622,
      "ets": 2623,
      "Ġlazy": 2624,
      "que": 2625,
      "Ġkissed": 2626,
      "Ġlemon": 2627,
      "Jimmy": 2628,
      "Ġcand": 2629,
      "Ġtears": 2630,
      "Ġdistance": 2631,
      "ggs": 2632,
      "Ġmic": 2633,
      "Ġsailed": 2634,
      "Ġeggs": 2635,
      "Ġdrawing": 2636,
      "ates": 2637,
      "ĠBl": 2638,
      "Ġdest": 2639,
      "ĠEnd": 2640,
      "Ġbecome": 2641,
      "Ġmov": 2642,
      "Ġshoot": 2643,
      "Ġmedicine": 2644,
      "Ġlead": 2645,
      "Ġpray": 2646,
      "Ġmistake": 2647,
      "Ġfis": 2648,
      "Ġmir": 2649,
      "Ġlying": 2650,
      "ating": 2651,
      "ĠRex": 2652,
      "Ġballs": 2653,
      "Ġsplashed": 2654,
      "Sorry": 2655,
      "Ġtie": 2656,
      "ĠOK": 2657,
      "Ġadd": 2658,
      "Ġlock": 2659,
      "aged": 2660,
      "alous": 2661,
      "ella": 2662,
      "Ġdrop": 2663,
      "Ġstones": 2664,
      "Ġones": 2665,
      "Ġquestions": 2666,
      "Ġext": 2667,
      "Ġjealous": 2668,
      "Ġclap": 2669,
      "Ġeld": 2670,
      "Ġok": 2671,
      "Ġwalks": 2672,
      "ĠLeo": 2673,
      "Ġrid": 2674,
      "Ġbathroom": 2675,
      "ror": 2676,
      "Ġgets": 2677,
      "Ġcrown": 2678,
      "Ġwheel": 2679,
      "Ġboss": 2680,
      "Ġfruits": 2681,
      "Ġfluffy": 2682,
      "Ġfeathers": 2683,
      "Ġskipped": 2684,
      "Ġglow": 2685,
      "Ġcrack": 2686,
      "Ġdisappeared": 2687,
      "Are": 2688,
      "Ġmap": 2689,
      "Ġchange": 2690,
      "Ġcross": 2691,
      "Ġweek": 2692,
      "Ġruined": 2693,
      "Jill": 2694,
      "Ġcage": 2695,
      "Ġmoving": 2696,
      "Ġqueen": 2697,
      "Ġcalling": 2698,
      "Ġdiscovered": 2699,
      "Ġextra": 2700,
      "imp": 2701,
      "Ġwrote": 2702,
      "Ġbake": 2703,
      "Ġfake": 2704,
      "Ġjuicy": 2705,
      "Ġcap": 2706,
      "Ġthick": 2707,
      "Ġbody": 2708,
      "Their": 2709,
      "ĠAt": 2710,
      "Ġgarage": 2711,
      "Sally": 2712,
      "Ġfather": 2713,
      "Ġeye": 2714,
      "ym": 2715,
      "Ġincred": 2716,
      "ination": 2717,
      "enny": 2718,
      "Ġunus": 2719,
      "Ġjoke": 2720,
      "ots": 2721,
      "Ġind": 2722,
      "Ġsoap": 2723,
      "Ġlose": 2724,
      "Ġsweetie": 2725,
      "Ġsell": 2726,
      "Ġbrush": 2727,
      "Ġcolourful": 2728,
      "Ġunusual": 2729,
      "cept": 2730,
      "Ġroar": 2731,
      "Ġdogs": 2732,
      "elp": 2733,
      "Ġglue": 2734,
      "Ġdish": 2735,
      "uggest": 2736,
      "Ġmeasure": 2737,
      "Billy": 2738,
      "Ġsuggest": 2739,
      "Ġcover": 2740,
      "Ġcovered": 2741,
      "Who": 2742,
      "ha": 2743,
      "Ġord": 2744,
      "keep": 2745,
      "Ġrealised": 2746,
      "Ġfamous": 2747,
      "yal": 2748,
      "asing": 2749,
      "Ġnoisy": 2750,
      "port": 2751,
      "Ġboard": 2752,
      "Ġboys": 2753,
      "Ġlicked": 2754,
      "Ġbranches": 2755,
      "ĠIf": 2756,
      "Ġdrank": 2757,
      "Ġpicks": 2758,
      "Ġadventur": 2759,
      "Ġsug": 2760,
      "umbled": 2761,
      "Ġtag": 2762,
      "Ġcost": 2763,
      "Ġelderly": 2764,
      "Ġmirror": 2765,
      "Ġonce": 2766,
      "Ġeager": 2767,
      "Ġclear": 2768,
      "Me": 2769,
      "Ġhappening": 2770,
      "Sp": 2771,
      "Ġcheck": 2772,
      "Ġincredible": 2773,
      "Ġdig": 2774,
      "ured": 2775,
      "Ġcleaned": 2776,
      "Ġmighty": 2777,
      "Ġtiger": 2778,
      "Ġadventurous": 2779,
      "Ġsugar": 2780,
      "Ġtape": 2781,
      "ately": 2782,
      "Ġtowel": 2783,
      "Ġbanana": 2784,
      "Ġed": 2785,
      "Ġcraw": 2786,
      "Ġmotor": 2787,
      "Ġsil": 2788,
      "Ġfine": 2789,
      "cil": 2790,
      "Ġbubbles": 2791,
      "Ġpencil": 2792,
      "Ġfigure": 2793,
      "Ġcrawled": 2794,
      "illi": 2795,
      "Ġborrow": 2796,
      "Ġhorn": 2797,
      "Ġknife": 2798,
      "Help": 2799,
      "hip": 2800,
      "Ġtwist": 2801,
      "Ġoffered": 2802,
      "Ġstraw": 2803,
      "fast": 2804,
      "ĠBlue": 2805,
      "Ġang": 2806,
      "Ġyours": 2807,
      "Ġloyal": 2808,
      "Ġdecide": 2809,
      "Ġbottom": 2810,
      "?\".": 2811,
      "ti": 2812,
      "ĠSusie": 2813,
      "ache": 2814,
      "Ġbreakfast": 2815,
      "ique": 2816,
      "ĠKitty": 2817,
      "Ġaw": 2818,
      "Ġshows": 2819,
      "Ġword": 2820,
      "ory": 2821,
      "Ġfavour": 2822,
      "ĠLittle": 2823,
      "Ġlouder": 2824,
      "keeper": 2825,
      "land": 2826,
      "Ġunique": 2827,
      "Ġorganized": 2828,
      "Ġtoug": 2829,
      "Ġrare": 2830,
      "Ġmanaged": 2831,
      "Ġenjoying": 2832,
      "Ġnod": 2833,
      "Ġbloom": 2834,
      "fic": 2835,
      "Ġwand": 2836,
      "Ġwhale": 2837,
      "Ġmod": 2838,
      "Ġfavourite": 2839,
      "imed": 2840,
      "Ġegg": 2841,
      "Ġboxes": 2842,
      "uggled": 2843,
      "Ġagainst": 2844,
      "rag": 2845,
      "Ġimpressed": 2846,
      "lies": 2847,
      "Ġgoat": 2848,
      "Ġkindness": 2849,
      "Ġadded": 2850,
      "Ġpump": 2851,
      "Ġfridge": 2852,
      "ipp": 2853,
      "Ġlamp": 2854,
      "Ġdizzy": 2855,
      "Ġfright": 2856,
      "Ġdiffic": 2857,
      "Ġwrapped": 2858,
      "Ġsword": 2859,
      "Ġspun": 2860,
      "Ġgiving": 2861,
      "Ġfool": 2862,
      "Ġwagon": 2863,
      "ĠMark": 2864,
      "Ġpee": 2865,
      "Ġsquee": 2866,
      "Ġguess": 2867,
      "olog": 2868,
      "Ġcher": 2869,
      "Ġshake": 2870,
      "ĠBrown": 2871,
      "Ġarg": 2872,
      "Ġcoins": 2873,
      "Ġdifficult": 2874,
      "Ġham": 2875,
      "Ġhappiness": 2876,
      "Ġsafely": 2877,
      "Ġhero": 2878,
      "Ġbarn": 2879,
      "Ġloudly": 2880,
      "Ġbelonged": 2881,
      "Ġtough": 2882,
      "Ġapolog": 2883,
      "emo": 2884,
      "ilt": 2885,
      "Ġgrace": 2886,
      "Al": 2887,
      "anged": 2888,
      "Ġchicken": 2889,
      "Ġballoons": 2890,
      "ery": 2891,
      "Ġfrown": 2892,
      "ready": 2893,
      "arry": 2894,
      "Gra": 2895,
      "Mummy": 2896,
      "Ġnorm": 2897,
      "zed": 2898,
      "Ġhunt": 2899,
      "Ġjewel": 2900,
      "Amy": 2901,
      "ĠNo": 2902,
      "Ġlearning": 2903,
      "Ġbald": 2904,
      "Ġtunn": 2905,
      "Ġgrown": 2906,
      "Ġneeds": 2907,
      "Ġaccept": 2908,
      "Ġrich": 2909,
      "Ġfat": 2910,
      "Ġmelt": 2911,
      "Ġshark": 2912,
      "Ġalready": 2913,
      "Ġcircles": 2914,
      "edient": 2915,
      "Ġharm": 2916,
      "Ġweird": 2917,
      "rage": 2918,
      "Ġdepend": 2919,
      "ages": 2920,
      "Ġrecord": 2921,
      "Ġcheerful": 2922,
      "Ġfoolish": 2923,
      "Ġcam": 2924,
      "Ġbuttons": 2925,
      "Ġbalance": 2926,
      "Sue": 2927,
      "head": 2928,
      "Ġpointing": 2929,
      "Ġchase": 2930,
      "Ġflash": 2931,
      "Ġslipped": 2932,
      "Ġmixed": 2933,
      "Ġhurts": 2934,
      "Ġbrothers": 2935,
      "Ġpainting": 2936,
      "Ġsmoke": 2937,
      "Ġmarket": 2938,
      "ipper": 2939,
      "Ġsearch": 2940,
      "Ġstrawber": 2941,
      "Ġnormal": 2942,
      "Well": 2943,
      "How": 2944,
      "Ġisland": 2945,
      "Ġlog": 2946,
      "Ġrough": 2947,
      "Joe": 2948,
      "Ġears": 2949,
      "Ġhose": 2950,
      "omed": 2951,
      "Ġjack": 2952,
      "ject": 2953,
      "Ġstream": 2954,
      "ĠPete": 2955,
      "arth": 2956,
      "Ġtrucks": 2957,
      "Ġmovie": 2958,
      "bborn": 2959,
      "Ġturt": 2960,
      "Ġcity": 2961,
      "Ġchoose": 2962,
      "Ġkinds": 2963,
      "Ġfour": 2964,
      "alk": 2965,
      "Ġmeans": 2966,
      "Ġdreams": 2967,
      "Ġstubborn": 2968,
      "Ġter": 2969,
      "ature": 2970,
      "Ġcompet": 2971,
      "Ġobedient": 2972,
      "Ġnosy": 2973,
      "Ġfrightened": 2974,
      "ĠBobby": 2975,
      "Ġswan": 2976,
      "Ġlifted": 2977,
      "gy": 2978,
      "Ġweal": 2979,
      "Ġref": 2980,
      "Ġbrilli": 2981,
      "ĠMrs": 2982,
      "Ġgrap": 2983,
      "iable": 2984,
      "oot": 2985,
      "Ġmoms": 2986,
      "Ġclay": 2987,
      "Ġicy": 2988,
      "Ġsaying": 2989,
      "Ġdreamed": 2990,
      "Ġbrilliant": 2991,
      "Ġmagn": 2992,
      "Ġedge": 2993,
      "Ġproudly": 2994,
      "und": 2995,
      "Ġtwig": 2996,
      "Ġusing": 2997,
      "Ġscare": 2998,
      "Ġskin": 2999,
      "Ġunl": 3000,
      "Ġbitter": 3001,
      "Ġreliable": 3002,
      "Ġoffice": 3003,
      "Ġsounded": 3004,
      "Ġwalls": 3005,
      "Ġvalu": 3006,
      "wards": 3007,
      "Ġlibr": 3008,
      "Ġuseful": 3009,
      "Ġescape": 3010,
      "Ġpil": 3011,
      "atter": 3012,
      "Ġabove": 3013,
      "Ġstronger": 3014,
      "Ġber": 3015,
      "Ġcircle": 3016,
      "Ġdolp": 3017,
      "Ġwrap": 3018,
      "cient": 3019,
      "Ġguit": 3020,
      "Ġrat": 3021,
      "Ġthoughtful": 3022,
      "Ġtrack": 3023,
      "Ġberries": 3024,
      "laimed": 3025,
      "Ġlean": 3026,
      "Ġjoined": 3027,
      "Ġtools": 3028,
      "Ġcompetit": 3029,
      "Ġtoast": 3030,
      "Ġfier": 3031,
      "ĠDucky": 3032,
      "ĠWhenever": 3033,
      "Ġinvited": 3034,
      "Ġexclaimed": 3035,
      "Ġhats": 3036,
      "Ġfalls": 3037,
      "Ġdependable": 3038,
      "Ġfre": 3039,
      "ĠToday": 3040,
      "iv": 3041,
      "Ġsuit": 3042,
      "Ġtank": 3043,
      "Ġcrayon": 3044,
      "Ġjam": 3045,
      "Ġgrandpa": 3046,
      "Ġtrunk": 3047,
      "Ġspoiled": 3048,
      "Ġbossy": 3049,
      "Ġexplored": 3050,
      "Ġindepend": 3051,
      "Ġgem": 3052,
      "Ġroof": 3053,
      "Ġcleaning": 3054,
      "bin": 3055,
      "Ġancient": 3056,
      "Ġtummy": 3057,
      "Ġenorm": 3058,
      "Ġbushes": 3059,
      "Ġshells": 3060,
      "Ġreminded": 3061,
      "Ġfierce": 3062,
      "Ġharder": 3063,
      "Ġenormous": 3064,
      "oppy": 3065,
      "ye": 3066,
      "Ġtimes": 3067,
      "Ġfrag": 3068,
      "Ġthu": 3069,
      "Ġswe": 3070,
      "ĠFred": 3071,
      "Ġchose": 3072,
      "Spot": 3073,
      "Ġyog": 3074,
      "Ġstumbled": 3075,
      "Ġlaughs": 3076,
      "Ġshape": 3077,
      "Ġcabin": 3078,
      "Ġdesign": 3079,
      "ention": 3080,
      "ÅĵLet": 3081,
      "ext": 3082,
      "Ġfountain": 3083,
      "ola": 3084,
      "ĠBu": 3085,
      "Ġyarn": 3086,
      "Ġterri": 3087,
      "Ġsuggested": 3088,
      "Ġwake": 3089,
      "amond": 3090,
      "ress": 3091,
      "Ġspace": 3092,
      "Here": 3093,
      "Ġhelps": 3094,
      "Ġmem": 3095,
      "Ġturtle": 3096,
      "Ġdelighted": 3097,
      "Ġvaluable": 3098,
      "Ġguitar": 3099,
      "Ġmarble": 3100,
      "orge": 3101,
      "Ġsmaller": 3102,
      "irp": 3103,
      "ipe": 3104,
      "ĠU": 3105,
      "Ġbeet": 3106,
      "Ġnotice": 3107,
      "Ġlaw": 3108,
      "Ġdiamond": 3109,
      "ĠMy": 3110,
      "Ġrode": 3111,
      "Ġjog": 3112,
      "Ġraced": 3113,
      "Ġcudd": 3114,
      "ĠNemo": 3115,
      "anger": 3116,
      "ĠElla": 3117,
      "ouses": 3118,
      "Ġindependent": 3119,
      "Ġparrot": 3120,
      "Ġshone": 3121,
      "Ġcounted": 3122,
      "Ġseem": 3123,
      "Ġexcitedly": 3124,
      "Ġshowing": 3125,
      "Ġfragile": 3126,
      "Ġbuilt": 3127,
      "Ġlow": 3128,
      "anut": 3129,
      "Ġknows": 3130,
      "Ġcamera": 3131,
      "Ġson": 3132,
      "Ġcostum": 3133,
      "uring": 3134,
      "Ġbrightly": 3135,
      "Ġwealthy": 3136,
      "dom": 3137,
      "kn": 3138,
      "Ġcere": 3139,
      "Ġsuccessful": 3140,
      "Ġbounce": 3141,
      "inary": 3142,
      "Ġfingers": 3143,
      "Ġadmired": 3144,
      "Ġangel": 3145,
      "Ġcop": 3146,
      "Ġways": 3147,
      "ĠRose": 3148,
      "Ġstudy": 3149,
      "Em": 3150,
      "Ġchanged": 3151,
      "Ġbags": 3152,
      "Ġbirdie": 3153,
      "Ġbatter": 3154,
      "Ġstamp": 3155,
      "Ġsolve": 3156,
      "Ġthirst": 3157,
      "Ġbull": 3158,
      "Ġlights": 3159,
      "Ġhouses": 3160,
      "gest": 3161,
      "Ġstri": 3162,
      "Ġarrow": 3163,
      "Ġmole": 3164,
      "Ġpainted": 3165,
      "umbers": 3166,
      "Ġtunnel": 3167,
      "inal": 3168,
      "Ġrushed": 3169,
      "iew": 3170,
      "Ġpicking": 3171,
      "Ġtele": 3172,
      "Ġprize": 3173,
      "Ġthemselves": 3174,
      "Ġbiggest": 3175,
      "Ġdove": 3176,
      "Ġkicked": 3177,
      "Ġpractice": 3178,
      "Ġmarch": 3179,
      "eorge": 3180,
      "com": 3181,
      "iginal": 3182,
      "Ġfresh": 3183,
      "Ġtooth": 3184,
      "Ġgoose": 3185,
      "Ġview": 3186,
      "Ġpost": 3187,
      "Ġsauce": 3188,
      "Ġlab": 3189,
      "Ġenvel": 3190,
      "cod": 3191,
      "Ġcomput": 3192,
      "known": 3193,
      "ado": 3194,
      "Ġsunf": 3195,
      "Ġsearching": 3196,
      "Ġhay": 3197,
      "Ġcone": 3198,
      "Ġresc": 3199,
      "Ġpoured": 3200,
      "Ġpumpkin": 3201,
      "Ġspinning": 3202,
      "corn": 3203,
      "Ġyet": 3204,
      "Ġgrand": 3205,
      "ĠFin": 3206,
      "Ġsalad": 3207,
      "Ġoriginal": 3208,
      "Ġcheap": 3209,
      "Ġstove": 3210,
      "Ġcereal": 3211,
      "Ġenc": 3212,
      "Ġdreaming": 3213,
      "upid": 3214,
      "Ġclum": 3215,
      "Ġpeanut": 3216,
      "anny": 3217,
      "Ġshadow": 3218,
      "Ġscrat": 3219,
      "Ġbeetle": 3220,
      "Ġbeak": 3221,
      "Ġdull": 3222,
      "uth": 3223,
      "Ġforth": 3224,
      "ĠMar": 3225,
      "Ġunknown": 3226,
      "Ġmetal": 3227,
      "Ġserious": 3228,
      "ĠAlice": 3229,
      "Ġthirsty": 3230,
      "Ġcompass": 3231,
      "Ġcrocod": 3232,
      "Ġnurse": 3233,
      "Ġsteal": 3234,
      "Ġpopcorn": 3235,
      "Ġdough": 3236,
      "Ġreward": 3237,
      "illie": 3238,
      "Ġpant": 3239,
      "Ġplayful": 3240,
      "Ġhandle": 3241,
      "Ġstupid": 3242,
      "ĠDave": 3243,
      "Ġclock": 3244,
      "Ġending": 3245,
      "âĤ¬âĢ": 3246,
      "Ġpup": 3247,
      "Ġpersist": 3248,
      "Ġwiped": 3249,
      "vice": 3250,
      "tern": 3251,
      "Ġprep": 3252,
      "ilty": 3253,
      "Ġnumbers": 3254,
      "Ġstairs": 3255,
      "Ġguilty": 3256,
      "Ġfinding": 3257,
      "Ġdelicate": 3258,
      "Ġbean": 3259,
      "Ġdesk": 3260,
      "Ġwire": 3261,
      "ither": 3262,
      "Ġumb": 3263,
      "Ġlocked": 3264,
      "Ġflute": 3265,
      "Ġgraceful": 3266,
      "Ġflashlight": 3267,
      "Ġclumsy": 3268,
      "Ġumbre": 3269,
      "Ġtelling": 3270,
      "Ġcareless": 3271,
      "apped": 3272,
      "Ġhoop": 3273,
      "Ġsniff": 3274,
      "Ġwhispered": 3275,
      "Ġfork": 3276,
      "Ġnicely": 3277,
      "Ġhairy": 3278,
      "Ġpeeked": 3279,
      "Ġallowed": 3280,
      "Ġtrap": 3281,
      "Ġcarrying": 3282,
      "Ġdead": 3283,
      "ience": 3284,
      "Ġmoder": 3285,
      "Ġmis": 3286,
      "Ġstranger": 3287,
      "ĠMummy": 3288,
      "Ġleaving": 3289,
      "Ġchar": 3290,
      "Ġboats": 3291,
      "Ġthunder": 3292,
      "Ġow": 3293,
      "Ġpotato": 3294,
      "Ġing": 3295,
      "Ġmel": 3296,
      "Ġthose": 3297,
      "Ġshel": 3298,
      "time": 3299,
      "!\".": 3300,
      "Ġsnee": 3301,
      "Ġterrible": 3302,
      "Ġsudden": 3303,
      "Ġnote": 3304,
      "Ġpasta": 3305,
      "Ġimagined": 3306,
      "Ġcompassion": 3307,
      "Ġbump": 3308,
      "ray": 3309,
      "redient": 3310,
      "Ġsparkled": 3311,
      "Ġavo": 3312,
      "Ġscreen": 3313,
      "Ġregular": 3314,
      "Ġingredient": 3315,
      "Ġwashed": 3316,
      "ĠBella": 3317,
      "Ġtomato": 3318,
      "While": 3319,
      "Ġjolly": 3320,
      "Ġwarned": 3321,
      "Ġenvelope": 3322,
      "Ġhalf": 3323,
      "ement": 3324,
      "Ġpattern": 3325,
      "Ġpopular": 3326,
      "Ġjacket": 3327,
      "Ġmodern": 3328,
      "ines": 3329,
      "Ġprint": 3330,
      "Ġmailbox": 3331,
      "ĠTweety": 3332,
      "Ġpirate": 3333,
      "Ġearth": 3334,
      "Ġcomputer": 3335,
      "Ġpow": 3336,
      "Ġfriendship": 3337,
      "ĠWhile": 3338,
      "oomy": 3339,
      "comfort": 3340,
      "Ġsne": 3341,
      "Ġgrowing": 3342,
      "Ġhammer": 3343,
      "Ġstat": 3344,
      "Ġshiver": 3345,
      "Ġimpress": 3346,
      "Ġliz": 3347,
      "Ġmeal": 3348,
      "Ġdeliver": 3349,
      "Ġacorn": 3350,
      "ĠBobo": 3351,
      "Ġseeds": 3352,
      "ision": 3353,
      "robe": 3354,
      "Ġuncomfort": 3355,
      "Ġaunt": 3356,
      "isk": 3357,
      "ugged": 3358,
      "Ġuncomfortable": 3359,
      "Ġcur": 3360,
      "Ġbees": 3361,
      "ĠEllie": 3362,
      "Ġdoesn": 3363,
      "Ġrubb": 3364,
      "Ġpige": 3365,
      "Ġmissing": 3366,
      "tter": 3367,
      "Ġperform": 3368,
      "illa": 3369,
      "Ġscatter": 3370,
      "Ġzip": 3371,
      "ations": 3372,
      "Ġrefused": 3373,
      "Ġenv": 3374,
      "Ġdriving": 3375,
      "Ġtied": 3376,
      "Ġflex": 3377,
      "Ġcrocodile": 3378,
      "Ġspilled": 3379,
      "Ġorder": 3380,
      "Ġguard": 3381,
      "Ġpenny": 3382,
      "Ġrubbed": 3383,
      "Ġstops": 3384,
      "Ġcomplet": 3385,
      "Ġtwirled": 3386,
      "See": 3387,
      "Ġer": 3388,
      "Ġwing": 3389,
      "Ġingredients": 3390,
      "Ġadvice": 3391,
      "Ġattic": 3392,
      "Ġthinking": 3393,
      "Ġpersistent": 3394,
      "Ġtrump": 3395,
      "ÅĵWhat": 3396,
      "Ġwitch": 3397,
      "ellig": 3398,
      "Ġtravel": 3399,
      "Ġhelm": 3400,
      "ÅĵLetÃ¢": 3401,
      "Ġload": 3402,
      "Ġintellig": 3403,
      "Ġhanded": 3404,
      "Ġperm": 3405,
      "arsh": 3406,
      "Ġsink": 3407,
      "Ġdust": 3408,
      "Ġsorts": 3409,
      "Ġumbrella": 3410,
      "het": 3411,
      "ĠYour": 3412,
      "Ġjug": 3413,
      "ÅĵIt": 3414,
      "Ġrub": 3415,
      "Ġbarber": 3416,
      "Ġotter": 3417,
      "Ġanx": 3418,
      "Ġpatch": 3419,
      "Ġearly": 3420,
      "Ġbent": 3421,
      "uddy": 3422,
      "Ġsquash": 3423,
      "Ġsleeping": 3424,
      "Ġquestion": 3425,
      "Ġcreate": 3426,
      "Ġchasing": 3427,
      "Ġsurf": 3428,
      "Ġcooking": 3429,
      "Ġdestro": 3430,
      "Ġtask": 3431,
      "Ġscale": 3432,
      "Ġrose": 3433,
      "aghet": 3434,
      "Ġplaced": 3435,
      "Ġflexible": 3436,
      "aghetti": 3437,
      "awn": 3438,
      "ict": 3439,
      "Ġcelebrate": 3440,
      "Ġshut": 3441,
      "Ġuncle": 3442,
      "fa": 3443,
      "Ġcounting": 3444,
      "Ġanxious": 3445,
      "Ġnature": 3446,
      "Ġbrace": 3447,
      "Ġdiscover": 3448,
      "Ġslides": 3449,
      "Ġgasped": 3450,
      "Ġstage": 3451,
      "Ġspaghetti": 3452,
      "Ġcrazy": 3453,
      "Ġhumble": 3454,
      "Ġharmless": 3455,
      "Ġrug": 3456,
      "Ġscoot": 3457,
      "Ġsunflower": 3458,
      "llip": 3459,
      "Ġeng": 3460,
      "Ġbeauty": 3461,
      "Ġbutterflies": 3462,
      "Ġcreatures": 3463,
      "llipop": 3464,
      "Ġmask": 3465,
      "Ġresist": 3466,
      "ĠAlex": 3467,
      "Ġlibrary": 3468,
      "io": 3469,
      "ince": 3470,
      "Ġshocked": 3471,
      "Ġblueber": 3472,
      "Ġencou": 3473,
      "Ġimpressive": 3474,
      "Ġtruth": 3475,
      "Ġsnuggled": 3476,
      "Ġlizard": 3477,
      "Ġtor": 3478,
      "Ġknock": 3479,
      "Ġsquare": 3480,
      "Ġsett": 3481,
      "Ġordinary": 3482,
      "iches": 3483,
      "ĠcouldnÃ¢": 3484,
      "Ġpale": 3485,
      "Ġshield": 3486,
      "Ġlollipop": 3487,
      "Ġtrumpet": 3488,
      "Ġvol": 3489,
      "cano": 3490,
      "ĠMandy": 3491,
      "Ġrece": 3492,
      "ud": 3493,
      "loo": 3494,
      "Ġcush": 3495,
      "ĠMike": 3496,
      "Ġdisg": 3497,
      "Ġspring": 3498,
      "orant": 3499,
      "Ġspeed": 3500,
      "Ġcricket": 3501,
      "Ġhung": 3502,
      "Ġmill": 3503,
      "Ġgum": 3504,
      "ĠSn": 3505,
      "ric": 3506,
      "Ġtowers": 3507,
      "Ġbrighter": 3508,
      "ĠKim": 3509,
      "ophie": 3510,
      "Ġpants": 3511,
      "used": 3512,
      "host": 3513,
      "Ġdisgust": 3514,
      "Ġchance": 3515,
      "Ġimpat": 3516,
      "Ġbadly": 3517,
      "uper": 3518,
      "Ġattract": 3519,
      "Ġdolphin": 3520,
      "Ġitself": 3521,
      "ĠFr": 3522,
      "Ġreading": 3523,
      "ĠToby": 3524,
      "Ġcrane": 3525,
      "Ġobject": 3526,
      "Ġcharming": 3527,
      "Ġahead": 3528,
      "arian": 3529,
      "Ġpepper": 3530,
      "Ġholds": 3531,
      "Ġspoke": 3532,
      "Ġenth": 3533,
      "Ġneat": 3534,
      "Ġsadly": 3535,
      "noon": 3536,
      "Ġafternoon": 3537,
      "Ġstickers": 3538,
      "Ġopens": 3539,
      "Ġmath": 3540,
      "Ġghost": 3541,
      "ĠLook": 3542,
      "Ġcomb": 3543,
      "Ġcourage": 3544,
      "htub": 3545,
      "Ġanywhere": 3546,
      "Ġwheels": 3547,
      "Ġphot": 3548,
      "Ġstatue": 3549,
      "Ġwindows": 3550,
      "Ġbathtub": 3551,
      "Ġignorant": 3552,
      "Ġstretched": 3553,
      "Ġimpatient": 3554,
      "Ġdug": 3555,
      "Ġstation": 3556,
      "Ġcact": 3557,
      "ebra": 3558,
      "Ġmagnet": 3559,
      "Ġenthus": 3560,
      "Ġintelligent": 3561,
      "Ġtem": 3562,
      "Ġcarp": 3563,
      "Ġdrawer": 3564,
      "Ġsandwiches": 3565,
      "Ġsend": 3566,
      "Ġleop": 3567,
      "Ġmeas": 3568,
      "Ġtrick": 3569,
      "Ġled": 3570,
      "Ġgifted": 3571,
      "coa": 3572,
      "Ġshoe": 3573,
      "Ġcollar": 3574,
      "Ġcartoon": 3575,
      "Ġfearful": 3576,
      "Ġvolcano": 3577,
      "aid": 3578,
      "Ġpiano": 3579,
      "Ġletters": 3580,
      "Ġmelon": 3581,
      "Ġcocoa": 3582,
      "Ġcupboard": 3583,
      "aurant": 3584,
      "Ġnail": 3585,
      "Ġflour": 3586,
      "Ġzebra": 3587,
      "Ġsplit": 3588,
      "cu": 3589,
      "Ġrestaurant": 3590,
      "Ġfurther": 3591,
      "Ġnames": 3592,
      "Ġbase": 3593,
      "aches": 3594,
      "Ġcompassionate": 3595,
      "Ġgloomy": 3596,
      "bled": 3597,
      "Ġpebble": 3598,
      "Ġcompetitive": 3599,
      "Ġpigeon": 3600,
      "Ġcactus": 3601,
      "iest": 3602,
      "Ġmay": 3603,
      "stri": 3604,
      "aby": 3605,
      "gu": 3606,
      "ĠHere": 3607,
      "ices": 3608,
      "Ġimpro": 3609,
      "Ġnuts": 3610,
      "Ġdestroy": 3611,
      "Go": 3612,
      "ÅĵYes": 3613,
      "ĠPat": 3614,
      "Ġnowhere": 3615,
      "Ġjeep": 3616,
      "Ġpracticed": 3617,
      "Ġcamp": 3618,
      "Ġseal": 3619,
      "Ġjet": 3620,
      "Ġrestless": 3621,
      "Ġhurry": 3622,
      "ikes": 3623,
      "Ġshine": 3624,
      "ĠEverything": 3625,
      "Ġfirework": 3626,
      "Ġengine": 3627,
      "Ġtire": 3628,
      "Ġpurse": 3629,
      "Ġgir": 3630,
      "Ġyawn": 3631,
      "Ġener": 3632,
      "Ġadmire": 3633,
      "ibb": 3634,
      "Ġhipp": 3635,
      "Ġpretending": 3636,
      "Mary": 3637,
      "oe": 3638,
      "ĠSm": 3639,
      "Ġsofa": 3640,
      "Ġpackage": 3641,
      "Ġhunter": 3642,
      "Ġshaking": 3643,
      "ĠWh": 3644,
      "Ġtrash": 3645,
      "Ġdisgusting": 3646,
      "ips": 3647,
      "Ġsupport": 3648,
      "Ġjumps": 3649,
      "Ġenvious": 3650,
      "Ow": 3651,
      "Ġpony": 3652,
      "Ġanyway": 3653,
      "Ġdeaf": 3654,
      "aff": 3655,
      "Ġtap": 3656,
      "Ġcooked": 3657,
      "opus": 3658,
      "ctopus": 3659,
      "ĠJoey": 3660,
      "Ġhuman": 3661,
      "Ġtur": 3662,
      "ĠLola": 3663,
      "Ġraven": 3664,
      "ĠEventually": 3665,
      "Ġvalue": 3666,
      "Ġstack": 3667,
      "Ġspell": 3668,
      "Ġcompl": 3669,
      "Yay": 3670,
      "Ġmush": 3671,
      "Ġcandle": 3672,
      "Ġattractive": 3673,
      "Ġcarpet": 3674,
      "gn": 3675,
      "Ġbri": 3676,
      "erable": 3677,
      "ĠGrandpa": 3678,
      "Ġwheat": 3679,
      "Ġoctopus": 3680,
      "Ġswitch": 3681,
      "Ġbandage": 3682,
      "Ġmiserable": 3683,
      "Ġcards": 3684,
      "Ġnobody": 3685,
      "Ġcats": 3686,
      "ccol": 3687,
      "ĠPaul": 3688,
      "ccoli": 3689,
      "ceed": 3690,
      "ief": 3691,
      "Ġunpack": 3692,
      "ophone": 3693,
      "Ġtorn": 3694,
      "Ġsuper": 3695,
      "ĠCl": 3696,
      "Ġbracelet": 3697,
      "Ġleopard": 3698,
      "par": 3699,
      "Ġbet": 3700,
      "Ġsepar": 3701,
      "Ġlaser": 3702,
      "Ġdistant": 3703,
      "Ġsalt": 3704,
      "Ġdecorate": 3705,
      "Ġsweater": 3706,
      "Ġhelpless": 3707,
      "Ġwaff": 3708,
      "Ġsoar": 3709,
      "Ġreco": 3710,
      "Ġcryst": 3711,
      "cream": 3712,
      "Ġostri": 3713,
      "Ġrice": 3714,
      "ĠPe": 3715,
      "hood": 3716,
      "shed": 3717,
      "Ġdess": 3718,
      "Ġalert": 3719,
      "Ġrules": 3720,
      "Alice": 3721,
      "ffe": 3722,
      "Ġhedge": 3723,
      "aroo": 3724,
      "angaroo": 3725,
      "Ġfilthy": 3726,
      "Ġturkey": 3727,
      "Ġstarts": 3728,
      "ĠTweetie": 3729,
      "ffee": 3730,
      "year": 3731,
      "Ġax": 3732,
      "Ġol": 3733,
      "Ġgor": 3734,
      "Ġbackpack": 3735,
      "Ġclub": 3736,
      "Ġpengu": 3737,
      "ses": 3738,
      "Ġolder": 3739,
      "Benny": 3740,
      "Ġsym": 3741,
      "ummer": 3742,
      "Ġexplain": 3743,
      "uct": 3744,
      "ÅĵThat": 3745,
      "Ġthread": 3746,
      "Ġcows": 3747,
      "Ġgiggle": 3748,
      "zzy": 3749,
      "ĠAndy": 3750,
      "Ġbroccoli": 3751,
      "iron": 3752,
      "Ġstared": 3753,
      "Ġkangaroo": 3754,
      "Ġpressed": 3755,
      "Ġelev": 3756,
      "Ġfootball": 3757,
      "Ġhippo": 3758,
      "aked": 3759,
      "Ġtray": 3760,
      "Ġclapping": 3761,
      "cycle": 3762,
      "Ġparade": 3763,
      "Ġlively": 3764,
      "ailable": 3765,
      "Ġsucceed": 3766,
      "Ġpaws": 3767,
      "Ġsize": 3768,
      "Ġbicy": 3769,
      "Ġrolling": 3770,
      "Ġsticker": 3771,
      "gging": 3772,
      "Ġgolf": 3773,
      "Ġleash": 3774,
      "Ġchain": 3775,
      "ubby": 3776,
      "Ġbeep": 3777,
      "Ġgoal": 3778,
      "bol": 3779,
      "Ġmushroom": 3780,
      "Re": 3781,
      "Ġcurt": 3782,
      "orable": 3783,
      "Ġhappier": 3784,
      "Ġelevator": 3785,
      "cut": 3786,
      "Ġaxe": 3787,
      "Ġsymbol": 3788,
      "Ġcurtain": 3789,
      "Ġhook": 3790,
      "Ġhive": 3791,
      "Ġpun": 3792,
      "urb": 3793,
      "Ġavailable": 3794,
      "Ġhelmet": 3795,
      "If": 3796,
      "Ġvine": 3797,
      "apa": 3798,
      "Ġquite": 3799,
      "Ġdisturb": 3800,
      "Ġmicr": 3801,
      "Ġsilver": 3802,
      "Ġmug": 3803,
      "Ġbounced": 3804,
      "Ġdessert": 3805,
      "Ġharsh": 3806,
      "Ġoy": 3807,
      "Ġjokes": 3808,
      "aulif": 3809,
      "Ġtrop": 3810,
      "ĠPolly": 3811,
      "Ġrod": 3812,
      "Ġcountry": 3813,
      "Ġscooter": 3814,
      "Ġsoldier": 3815,
      "Ġavoc": 3816,
      "ĠBear": 3817,
      "Ġcoffee": 3818,
      "Ġcolours": 3819,
      "Ġexper": 3820,
      "Everyone": 3821,
      "heart": 3822,
      "inking": 3823,
      "ĠBuddy": 3824,
      "Ġskip": 3825,
      "Ġneedle": 3826,
      "Ġadorable": 3827,
      "Ġmessage": 3828,
      "Ġpushing": 3829,
      "Ġsecond": 3830,
      "Ġtreasures": 3831,
      "Ġstirred": 3832,
      "ĠBill": 3833,
      "ĠWhere": 3834,
      "Ġpainter": 3835,
      "Ġneighbour": 3836,
      "Ġorganize": 3837,
      "Ġsteps": 3838,
      "Ġroared": 3839,
      "Ġframe": 3840,
      "Ġmicrophone": 3841,
      "Ġcord": 3842,
      "Ġur": 3843,
      "Ġsomewhere": 3844,
      "ĠGrace": 3845,
      "Ġrecogn": 3846,
      "Ġostrich": 3847,
      "Ġtrophy": 3848,
      "Ġfu": 3849,
      "Ġcaulif": 3850,
      "Ġhall": 3851,
      "ĠGive": 3852,
      "Ġriding": 3853,
      "Ġcushion": 3854,
      "ĠSmith": 3855,
      "Ġgorilla": 3856,
      "ef": 3857,
      "ipping": 3858,
      "Ġsent": 3859,
      "Ġbin": 3860,
      "Ġstarting": 3861,
      "ĠGeorge": 3862,
      "Ġbarrel": 3863,
      "Ġrepe": 3864,
      "Ġwishes": 3865,
      "Ġmodest": 3866,
      "ws": 3867,
      "Ġoat": 3868,
      "ĠSh": 3869,
      "Little": 3870,
      "stairs": 3871,
      "Ġmuff": 3872,
      "Ġchubby": 3873,
      "Ġuniver": 3874,
      "Ġpolish": 3875,
      "Ġradio": 3876,
      "ĠAre": 3877,
      "Ġshouts": 3878,
      "Ġforgave": 3879,
      "Ġcooler": 3880,
      "Ġpilot": 3881,
      "Ġsle": 3882,
      "elery": 3883,
      "Ġvi": 3884,
      "Ġgiven": 3885,
      "iskers": 3886,
      "night": 3887,
      "ĠdidnÃ¢": 3888,
      "Ġart": 3889,
      "Ġholes": 3890,
      "Ġeras": 3891,
      "Ġluck": 3892,
      "Ġonion": 3893,
      "Ġpaid": 3894,
      "Ġthief": 3895,
      "Ġspir": 3896,
      "Ġvisited": 3897,
      "Ġzoomed": 3898,
      "ĠBrownie": 3899,
      "Ġlear": 3900,
      "Ġlistening": 3901,
      "Ġbehave": 3902,
      "Ġtriang": 3903,
      "Ġcostume": 3904,
      "Ġbicycle": 3905,
      "stic": 3906,
      "Ġscold": 3907,
      "Ġbarking": 3908,
      "Ġstretch": 3909,
      "Ġlearnt": 3910,
      "Ġshort": 3911,
      "Ġpulls": 3912,
      "Ġcrystal": 3913,
      "az": 3914,
      "ube": 3915,
      "aled": 3916,
      "Ġlightning": 3917,
      "Ġobser": 3918,
      "Ġspeak": 3919,
      "ci": 3920,
      "render": 3921,
      "Ġcase": 3922,
      "Ġlip": 3923,
      "Ġended": 3924,
      "ebook": 3925,
      "ooped": 3926,
      "Ġkay": 3927,
      "ĠJerry": 3928,
      "Give": 3929,
      "eer": 3930,
      "Ġnotebook": 3931,
      "Ġsort": 3932,
      "Ġbreat": 3933,
      "Ġtroubled": 3934,
      "hino": 3935,
      "Ġten": 3936,
      "Ġpor": 3937,
      "Ġhadn": 3938,
      "Ġswinging": 3939,
      "Ġmixer": 3940,
      "Ġshopkeeper": 3941,
      "Ġsummer": 3942,
      "astic": 3943,
      "iastic": 3944,
      "Ġhoping": 3945,
      "olin": 3946,
      "Ġshrimp": 3947,
      "Ġshelter": 3948,
      "Ġenthusiastic": 3949,
      "Ġcauliflower": 3950,
      "ĠRed": 3951,
      "Ġfive": 3952,
      "kelet": 3953,
      "Ġprov": 3954,
      "Ġfilm": 3955,
      "Daisy": 3956,
      "Ġpeach": 3957,
      "Ġcomet": 3958,
      "iling": 3959,
      "ĠSandy": 3960,
      "ucked": 3961,
      "Ġdishes": 3962,
      "arlie": 3963,
      "Ġfrowned": 3964,
      "reci": 3965,
      "Ġtripped": 3966,
      "Ġpoint": 3967,
      "Ġrespectful": 3968,
      "Ġenergy": 3969,
      "Bye": 3970,
      "Ġcelery": 3971,
      "Ġpipe": 3972,
      "Ġstrugg": 3973,
      "Ġmonkeys": 3974,
      "Ġquar": 3975,
      "Ġpair": 3976,
      "Ġmarched": 3977,
      "Ġsailor": 3978,
      "Ġrepair": 3979,
      "happy": 3980,
      "Ġtube": 3981,
      "Ġrhino": 3982,
      "Ġreind": 3983,
      "Ġwallet": 3984,
      "Ġspirit": 3985,
      "keleton": 3986,
      "Ġdive": 3987,
      "Ġpad": 3988,
      "Ġgro": 3989,
      "Ġbuzz": 3990,
      "Ġevening": 3991,
      "Ġappreci": 3992,
      "Ġfireman": 3993,
      "Ġairport": 3994,
      "Ġgrapes": 3995,
      "Ġeither": 3996,
      "Ġyach": 3997,
      "Ġclimbing": 3998,
      "Ġants": 3999,
      "Ġfort": 4000,
      "Ġpushes": 4001,
      "Ġrescue": 4002,
      "Ġtrains": 4003,
      "Ġdrawings": 4004,
      "Ġunlock": 4005,
      "Ġeraser": 4006,
      "azz": 4007,
      "Ġtax": 4008,
      "Ġtemp": 4009,
      "Ġped": 4010,
      "agg": 4011,
      "anda": 4012,
      "Ġtricks": 4013,
      "Ġraining": 4014,
      "Ġlions": 4015,
      "âĤ¬âĢľ": 4016,
      "ron": 4017,
      "Ġribb": 4018,
      "Ġthanks": 4019,
      "Ġiron": 4020,
      "enry": 4021,
      "Ġreef": 4022,
      "Ġmeat": 4023,
      "Ġbubble": 4024,
      "Ġmild": 4025,
      "Ġchecked": 4026,
      "Ġsurrender": 4027,
      "Ġloop": 4028,
      "Ġincl": 4029,
      "Ġstuffed": 4030,
      "Ġreindeer": 4031,
      "Ġyacht": 4032,
      "Ġskeleton": 4033,
      "Ġboots": 4034,
      "ĠTr": 4035,
      "Ġfinds": 4036,
      "Ġbears": 4037,
      "Ġbikes": 4038,
      "Ġlid": 4039,
      "anic": 4040,
      "Ġinsist": 4041,
      "Ġstom": 4042,
      "ĠMillie": 4043,
      "Ġleaned": 4044,
      "Ġcomplete": 4045,
      "ĠWhiskers": 4046,
      "chanic": 4047,
      "Ġvest": 4048,
      "Ġunhappy": 4049,
      "Ġstrawberry": 4050,
      "Ġtaxi": 4051,
      "Jenny": 4052,
      "sely": 4053,
      "ected": 4054,
      "Ġsweetheart": 4055,
      "Ġknot": 4056,
      "Ġvide": 4057,
      "reeze": 4058,
      "Ġallig": 4059,
      "Ġalive": 4060,
      "Ġchalk": 4061,
      "Ġsunset": 4062,
      "Ġappl": 4063,
      "Ġgrabs": 4064,
      "Ġtheater": 4065,
      "Ġsandbox": 4066,
      "angu": 4067,
      "Ġfle": 4068,
      "Ġlangu": 4069,
      "Ġmechanic": 4070,
      "Ġputting": 4071,
      "Ġskill": 4072,
      "Ġcube": 4073,
      "ĠPapa": 4074,
      "Ġshovel": 4075,
      "Ġsprink": 4076,
      "ĠSnow": 4077,
      "cast": 4078,
      "ccer": 4079,
      "eath": 4080,
      "ĠWould": 4081,
      "ĠRos": 4082,
      "Ġfisher": 4083,
      "ĠBunny": 4084,
      "ecause": 4085,
      "Ġmarry": 4086,
      "Daddy": 4087,
      "Ġsoccer": 4088,
      "icer": 4089,
      "Ġhaircut": 4090,
      "Ġfields": 4091,
      "Ġcable": 4092,
      "Ġbelt": 4093,
      "Ġstrip": 4094,
      "erc": 4095,
      "Ġsock": 4096,
      "Ġclosely": 4097,
      "ckey": 4098,
      "ĠLee": 4099,
      "Ġhockey": 4100,
      "Ġsaus": 4101,
      "Ġlaund": 4102,
      "Ġglove": 4103,
      "Ġsandcast": 4104,
      "Ġporch": 4105,
      "Ġmen": 4106,
      "ison": 4107,
      "Ġsheet": 4108,
      "Ġlime": 4109,
      "Ġapologized": 4110,
      "Ġlaundry": 4111,
      "Ġbul": 4112,
      "Ġwelcomed": 4113,
      "Ġcreated": 4114,
      "Ġperfectly": 4115,
      "ĠMaria": 4116,
      "Ġpoem": 4117,
      "Ġpeek": 4118,
      "edy": 4119,
      "play": 4120,
      "mand": 4121,
      "Ġpapers": 4122,
      "icop": 4123,
      "Ġjudge": 4124,
      "achel": 4125,
      "icopter": 4126,
      "Ha": 4127,
      "stead": 4128,
      "Ġweather": 4129,
      "Ġkitty": 4130,
      "Ġdisag": 4131,
      "Ġsoftly": 4132,
      "Ġpress": 4133,
      "Ġmama": 4134,
      "Ġrag": 4135,
      "Ġquit": 4136,
      "Ġraft": 4137,
      "Ġdiary": 4138,
      "Ġmotorcycle": 4139,
      "Ġkayak": 4140,
      "ĠSophie": 4141,
      "Ġshade": 4142,
      "Ġseeing": 4143,
      "ceros": 4144,
      "Ġoyster": 4145,
      "aggie": 4146,
      "Ġbulb": 4147,
      "ween": 4148,
      "any": 4149,
      "ĠRo": 4150,
      "Ġhelicopter": 4151,
      "Ġcrib": 4152,
      "Ġbur": 4153,
      "Ġblowing": 4154,
      "Ġbetween": 4155,
      "Ġrever": 4156,
      "Ġexerc": 4157,
      "Ġsneak": 4158,
      "Ġnapkin": 4159,
      "Ġattention": 4160,
      "Ġmedal": 4161,
      "chair": 4162,
      "Ġmule": 4163,
      "Ġtuna": 4164,
      "affe": 4165,
      "Ġwaving": 4166,
      "Ġlend": 4167,
      "ides": 4168,
      "ÅĵYou": 4169,
      "Ġcelebrated": 4170,
      "Grandma": 4171,
      "ories": 4172,
      "Ġdisplay": 4173,
      "Ġfalling": 4174,
      "Ġrhinoceros": 4175,
      "bul": 4176,
      "Ġlie": 4177,
      "seum": 4178,
      "Ġvend": 4179,
      "Ġpastry": 4180,
      "Ġphoto": 4181,
      "Ġpal": 4182,
      "Ġkingdom": 4183,
      "gen": 4184,
      "Ġmuseum": 4185,
      "Ġshouldn": 4186,
      "Ġhotel": 4187,
      "Ġchickens": 4188,
      "Ġsoil": 4189,
      "Ġbaking": 4190,
      "Ġfisherman": 4191,
      "ito": 4192,
      "Ġrot": 4193,
      "Ġpole": 4194,
      "Ġsteak": 4195,
      "Ġarmchair": 4196,
      "Ġcounter": 4197,
      "Ġpetals": 4198,
      "Ġpowder": 4199,
      "Ġaer": 4200,
      "opl": 4201,
      "Ġsmells": 4202,
      "Ġaeropl": 4203,
      "una": 4204,
      "Ġtwink": 4205,
      "Ġbasketball": 4206,
      "Ġpage": 4207,
      "Ġpanda": 4208,
      "ĠWill": 4209,
      "Ġfreez": 4210,
      "Ġfishing": 4211,
      "Ġquarrel": 4212,
      "Ġinse": 4213,
      "Ġcane": 4214,
      "rosc": 4215,
      "Ġgolden": 4216,
      "unately": 4217,
      "Ġfeelings": 4218,
      "Ġtrail": 4219,
      "Ġminute": 4220,
      "Ġcardboard": 4221,
      "Ġviolin": 4222,
      "Ġgrocer": 4223,
      "Ġalligator": 4224,
      "ges": 4225,
      "Ġbreaks": 4226,
      "Ġradish": 4227,
      "Ġmicrosc": 4228,
      "Ġgiraffe": 4229,
      "Ġoil": 4230,
      "ense": 4231,
      "Ġwife": 4232,
      "Ġfrogs": 4233,
      "Ġwinter": 4234,
      "Inside": 4235,
      "Ġglowing": 4236,
      "..": 4237,
      "quito": 4238,
      "Ġshoulder": 4239,
      "Ġpalace": 4240,
      "Ġmicroscope": 4241,
      "Ġstable": 4242,
      "Ġvet": 4243,
      "Ġtear": 4244,
      "Ġpresents": 4245,
      "ĠLilly": 4246,
      "Ġcups": 4247,
      "Ġimagine": 4248,
      "Ġdiscu": 4249,
      "Ġdrops": 4250,
      "Ġvendor": 4251,
      "ait": 4252,
      "eve": 4253,
      "Ġhut": 4254,
      "Ġflies": 4255,
      "Ġpassport": 4256,
      "Ġmemories": 4257,
      "Ġlawy": 4258,
      "Ġslept": 4259,
      "iture": 4260,
      "Ġshakes": 4261,
      "Ġchirp": 4262,
      "Ġflame": 4263,
      "urniture": 4264,
      "Ġheaded": 4265,
      "Ġforgotten": 4266,
      "Ġsailing": 4267,
      "iday": 4268,
      "Ġfauc": 4269,
      "Ġheads": 4270,
      "Ġeagerly": 4271,
      "Ġbananas": 4272,
      "Emma": 4273,
      "Ġfurniture": 4274,
      "Ġmos": 4275,
      "Ġplanet": 4276,
      "Ġrubber": 4277,
      "Ġswung": 4278,
      "Ġjourn": 4279,
      "Ġimagination": 4280,
      "Ġtoil": 4281,
      "aud": 4282,
      "Ġmaze": 4283,
      "Ġcherries": 4284,
      "inarian": 4285,
      "Ġoffer": 4286,
      "Ġtrave": 4287,
      "Ġambul": 4288,
      "eterinarian": 4289,
      "Ġbarks": 4290,
      "Ġmosquito": 4291,
      "ĠHarry": 4292,
      "Ġaccepted": 4293,
      "low": 4294,
      "Ġtub": 4295,
      "ero": 4296,
      "imney": 4297,
      "Ġplayer": 4298,
      "Ġveterinarian": 4299,
      "ĠdonÃ¢": 4300,
      "Ġcrow": 4301,
      "Ġskull": 4302,
      "Ġskirt": 4303,
      "Ġsprayed": 4304,
      "Today": 4305,
      "Ġjellyfish": 4306,
      "Ġfaucet": 4307,
      "Ġbreeze": 4308,
      "place": 4309,
      "Ġshower": 4310,
      "Ġdancer": 4311,
      "Ġceiling": 4312,
      "Ġavocado": 4313,
      "Ġstaff": 4314,
      "Ġchimney": 4315,
      "Ġmystery": 4316,
      "ĠUn": 4317,
      "Ġplastic": 4318,
      "izes": 4319,
      "Ġstraight": 4320,
      "ippery": 4321,
      "Ġflea": 4322,
      "Ġlanguage": 4323,
      "Ġtoilet": 4324,
      "Eventually": 4325,
      "Ġdressed": 4326,
      "Ġtriangle": 4327,
      "Next": 4328,
      "liday": 4329,
      "ues": 4330,
      "Ġholiday": 4331,
      "Ġslippery": 4332,
      "Ġmagaz": 4333,
      "Ġjournal": 4334,
      "Ch": 4335,
      "Ġlives": 4336,
      "urch": 4337,
      "Ġbaseball": 4338,
      "Ġambulance": 4339,
      "tress": 4340,
      "Ġreve": 4341,
      "Ġmattress": 4342,
      "Ġlawyer": 4343,
      "nger": 4344,
      "ĠKate": 4345,
      "elcome": 4346,
      "Ġstud": 4347,
      "Ġmop": 4348,
      "Ġshouting": 4349,
      "ngth": 4350,
      "ĠInstead": 4351,
      "Ġignored": 4352,
      "Ġcheek": 4353,
      "Ġstrength": 4354,
      "Ġinvest": 4355,
      "Ġitch": 4356,
      "Ġink": 4357,
      "ents": 4358,
      "rod": 4359,
      "Ġintrod": 4360,
      "Ġaeroplane": 4361,
      "Ġpine": 4362,
      "bbie": 4363,
      "Ġsince": 4364,
      "Ġprevent": 4365,
      "Ġattach": 4366,
      "Ġcollected": 4367,
      "Ġrelaxed": 4368,
      "Ġseparate": 4369,
      "Ġapplaud": 4370,
      "Ġinvestig": 4371,
      "Ġseas": 4372,
      "Ġworth": 4373,
      "Ġbury": 4374,
      "Ġclassroom": 4375,
      "uby": 4376,
      "Ġble": 4377,
      "Ġlawn": 4378,
      "Together": 4379,
      "ĠBaby": 4380,
      "Ġpirates": 4381,
      "ĠRosie": 4382,
      "Ġinf": 4383,
      "asis": 4384,
      "Ġbouncing": 4385,
      "Ġpuddles": 4386,
      "Ġsurround": 4387,
      "case": 4388,
      "asher": 4389,
      "Ġmarried": 4390,
      "washer": 4391,
      "Ġhar": 4392,
      "Ġsque": 4393,
      "anges": 4394,
      "Ġpinch": 4395,
      "Ġsung": 4396,
      "Ġfireplace": 4397,
      "Ġmeeting": 4398,
      "Ġdishwasher": 4399,
      "Ġyogurt": 4400,
      "lass": 4401,
      "Ġhappens": 4402,
      "Ġfog": 4403,
      "Ġbelongs": 4404,
      "ĠOr": 4405,
      "Ġwool": 4406,
      "Ġweep": 4407,
      "Ġburned": 4408,
      "Ġhanging": 4409,
      "Ġoasis": 4410,
      "Ġwriting": 4411,
      "Ġmistakes": 4412,
      "Ġpopped": 4413,
      "Ġsquirrels": 4414,
      "Ġwhisper": 4415,
      "ĠAnnie": 4416,
      "Ġmoves": 4417,
      "Ġargue": 4418,
      "Ġsniffed": 4419,
      "ives": 4420,
      "Ġaut": 4421,
      "ĠSu": 4422,
      "Ġyield": 4423,
      "Ġcob": 4424,
      "iately": 4425,
      "te": 4426,
      "Ġsir": 4427,
      "Your": 4428,
      "reek": 4429,
      "Ġdoors": 4430,
      "mediately": 4431,
      "Ġnovel": 4432,
      "ssible": 4433,
      "Ġflapped": 4434,
      "Ġgrin": 4435,
      "orses": 4436,
      "Ġfreezer": 4437,
      "Because": 4438,
      "Ġcreek": 4439,
      "ĠTony": 4440,
      "Ġgym": 4441,
      "une": 4442,
      "ĠBun": 4443,
      "Ġimprove": 4444,
      "chie": 4445,
      "Ġinvestigate": 4446,
      "Ġhorses": 4447,
      "ĠSee": 4448,
      "Ġpoke": 4449,
      "Ġward": 4450,
      "Ġsteam": 4451,
      "Ġblankets": 4452,
      "Ġthrowing": 4453,
      "web": 4454,
      "Ġpra": 4455,
      "Ġchoice": 4456,
      "Ġscolded": 4457,
      "Ġwardrobe": 4458,
      "Ġchess": 4459,
      "Thanks": 4460,
      "Ġhopes": 4461,
      "Ġbelow": 4462,
      "Ġparent": 4463,
      "ler": 4464,
      "ising": 4465,
      "Ġknown": 4466,
      "Ġagre": 4467,
      "Ġpoints": 4468,
      "Ġalarm": 4469,
      "Ġnews": 4470,
      "Ġcrawling": 4471,
      "Ġinsect": 4472,
      "ĠIÃ¢": 4473,
      "hero": 4474,
      "Ġappro": 4475,
      "Ġzipper": 4476,
      "hic": 4477,
      "Ġpit": 4478,
      "Ġeaten": 4479,
      "Ġdear": 4480,
      "Ġentered": 4481,
      "Ġfolder": 4482,
      "Ġscrew": 4483,
      "Ġsuperhero": 4484,
      "imi": 4485,
      "ĠitÃ¢": 4486,
      "Ġrequ": 4487,
      "Ġquack": 4488,
      "Ġvehic": 4489,
      "Ġcrossed": 4490,
      "ites": 4491,
      "chor": 4492,
      "Ġgreedy": 4493,
      "Ġsticky": 4494,
      "ÅĵItÃ¢": 4495,
      "Ġpenguin": 4496,
      "Ġcobweb": 4497,
      "right": 4498,
      "Ġwigg": 4499,
      "Ġcomplain": 4500,
      "house": 4501,
      "ĠJul": 4502,
      "Ġfactor": 4503,
      "Ġmustache": 4504,
      "Ġthrows": 4505,
      "lasses": 4506,
      "men": 4507,
      "vision": 4508,
      "Ġig": 4509,
      "Ġamazement": 4510,
      "ĠRachel": 4511,
      "Ġapart": 4512,
      "Ġsunglasses": 4513,
      "Ġigloo": 4514,
      "inked": 4515,
      "Ġstro": 4516,
      "Ġchurch": 4517,
      "Ġconf": 4518,
      "rs": 4519,
      "Ġminer": 4520,
      "Ġsqueezed": 4521,
      "Ġherb": 4522,
      "ety": 4523,
      "Ġrake": 4524,
      "Ġopera": 4525,
      "fortunately": 4526,
      "Ġsplashing": 4527,
      "Ġfactory": 4528,
      "Ġcared": 4529,
      "Ġfiref": 4530,
      "Ġregret": 4531,
      "ĠBet": 4532,
      "Ġairpl": 4533,
      "Ġveil": 4534,
      "Ġshrugged": 4535,
      "Ġfile": 4536,
      "Ġwipe": 4537,
      "mend": 4538,
      "rm": 4539,
      "sit": 4540,
      "ĊĠ": 4541,
      "Ġshrink": 4542,
      "Ġtelevision": 4543,
      "Ġfought": 4544,
      "Ġcell": 4545,
      "ores": 4546,
      "Ġboot": 4547,
      "Ġpear": 4548,
      "ups": 4549,
      "Ġrequest": 4550,
      "Ġbother": 4551,
      "omob": 4552,
      "Ġoak": 4553,
      "aces": 4554,
      "Ġfloat": 4555,
      "ring": 4556,
      "Ġthumb": 4557,
      "Ġswamp": 4558,
      "Ġquietly": 4559,
      "Ġincre": 4560,
      "Ġautomob": 4561,
      "mm": 4562,
      "ommend": 4563,
      "Ġbookcase": 4564,
      "Ġdemand": 4565,
      "ab": 4566,
      "lier": 4567,
      "Ġsuff": 4568,
      "Ġtherm": 4569,
      "Ġcaring": 4570,
      "Ġrecommend": 4571,
      "Ġanchor": 4572,
      "Ġknob": 4573,
      "Ġrail": 4574,
      "Mandy": 4575,
      "ĠJess": 4576,
      "Ġgrill": 4577,
      "Ġrooms": 4578,
      "Ġsparkle": 4579,
      "aw": 4580,
      "Ġsizes": 4581,
      "Ġpur": 4582,
      "atie": 4583,
      "Ġvac": 4584,
      "Ġringing": 4585,
      "Ġsqueeze": 4586,
      "'.": 4587,
      "Ġtucked": 4588,
      "ĠHelp": 4589,
      "Ġraz": 4590,
      "Ġsparkling": 4591,
      "Ġeasily": 4592,
      "Ġyoga": 4593,
      "Ġweigh": 4594,
      "Ġagree": 4595,
      "Sammy": 4596,
      "Ġsupply": 4597,
      "ĠGod": 4598,
      "uckily": 4599,
      "Ġblinked": 4600,
      "Ġthermomet": 4601,
      "amber": 4602,
      "Ġspear": 4603,
      "Ġsurprises": 4604,
      "Ġdelay": 4605,
      "Ġsafety": 4606,
      "ĠCharlie": 4607,
      "Ġrefre": 4608,
      "nam": 4609,
      "Ġhelper": 4610,
      "Ġblackboard": 4611,
      "Ġlemonade": 4612,
      "omes": 4613,
      "Ġmakeup": 4614,
      "Ġhills": 4615,
      "tain": 4616,
      "Ġbravely": 4617,
      "Ġunif": 4618,
      "Ġspending": 4619,
      "ĠTrue": 4620,
      "Ġvideo": 4621,
      "vet": 4622,
      "Ġtrusted": 4623,
      "Ġwandered": 4624,
      "Ġwags": 4625,
      "ĠDanny": 4626,
      "Ġlaught": 4627,
      "Ġmagazine": 4628,
      "Ġtug": 4629,
      "Ġhurting": 4630,
      "Ġteleph": 4631,
      "Ann": 4632,
      "Wait": 4633,
      "raged": 4634,
      "Ġmusician": 4635,
      "Ġvanished": 4636,
      "Ġcherry": 4637,
      "Ġjunk": 4638,
      "Ġearlier": 4639,
      "Ġthermometer": 4640,
      "Ġuniform": 4641,
      "cakes": 4642,
      "Ġreaches": 4643,
      "Ġquiz": 4644,
      "Ġletting": 4645,
      "Ġfallen": 4646,
      "Ġdisappear": 4647,
      "Ġmint": 4648,
      "Ġbattery": 4649,
      "Ġlaughter": 4650,
      "Ġtelephone": 4651,
      "Ġwaste": 4652,
      "ĠTed": 4653,
      "Ġsaving": 4654,
      "icing": 4655,
      "Ġcliff": 4656,
      "bor": 4657,
      "oral": 4658,
      "fume": 4659,
      "Ġprop": 4660,
      "Ġornam": 4661,
      "Ġraise": 4662,
      "Ġapron": 4663,
      "Ġkisses": 4664,
      "Ġticket": 4665,
      "Ġtemple": 4666,
      "Ġisn": 4667,
      "Ġfastest": 4668,
      "Ġkeeping": 4669,
      "Ġunderstanding": 4670,
      "Ġdestination": 4671,
      "Ġrazor": 4672,
      "ived": 4673,
      "Ġport": 4674,
      "Ġspade": 4675,
      "Ġhardly": 4676,
      "Ġflutter": 4677,
      "Ġskills": 4678,
      "Ġtoes": 4679,
      "Ġberry": 4680,
      "Ġyucky": 4681,
      "Ġperfume": 4682,
      "Ġcastles": 4683,
      "Ġbeef": 4684,
      "Ġserve": 4685,
      "Ġstrawberries": 4686,
      "Ġsettled": 4687,
      "ction": 4688,
      "Did": 4689,
      "Ġitem": 4690,
      "Ġrise": 4691,
      "ĠNext": 4692,
      "Ġmailman": 4693,
      "Ġprepare": 4694,
      "Ġinfant": 4695,
      "ĠEach": 4696,
      "Ġpoked": 4697,
      "Ġimmediately": 4698,
      "Ġfollowing": 4699,
      "ggy": 4700,
      "ĠClara": 4701,
      "Ġexperience": 4702,
      "ium": 4703,
      "Ġtong": 4704,
      "Ġdire": 4705,
      "Ġpalm": 4706,
      "Ġchamber": 4707,
      "Ġkneel": 4708,
      "Ġmuffin": 4709,
      "Ġvroom": 4710,
      "Ġchairs": 4711,
      "Ġinstr": 4712,
      "Ġscattered": 4713,
      "Ġharbor": 4714,
      "Ġlotion": 4715,
      "Ġoranges": 4716,
      "Ġremove": 4717,
      "Ġfollows": 4718,
      "Ġcabinet": 4719,
      "Will": 4720,
      "Ġdried": 4721,
      "âĤ¬.": 4722,
      "Ġdresses": 4723,
      "Ġcrash": 4724,
      "Ġhearts": 4725,
      "Ġblueberries": 4726,
      "Ġtut": 4727,
      "Ġweap": 4728,
      "ĠIts": 4729,
      "ĠJames": 4730,
      "Ġleak": 4731,
      "Ġautomobile": 4732,
      "Ġwine": 4733,
      "Ġwarmth": 4734,
      "Ġspots": 4735,
      "Ġpraised": 4736,
      "With": 4737,
      "Ġcalls": 4738,
      "Ġenter": 4739,
      "ĠSnowy": 4740,
      "Ġburied": 4741,
      "Ġgrowled": 4742,
      "Ġreverse": 4743,
      "Ġtrade": 4744,
      "Ġclaws": 4745,
      "ampoo": 4746,
      "Ġsnap": 4747,
      "Ġlumber": 4748,
      "Ġbeans": 4749,
      "Ġbeamed": 4750,
      "ĠWho": 4751,
      "Ġmatches": 4752,
      "Ġmoments": 4753,
      "Ġadmir": 4754,
      "Ġshooting": 4755,
      "sing": 4756,
      "ĠHenry": 4757,
      "Ġplates": 4758,
      "Ġscooped": 4759,
      "Ġcoal": 4760,
      "Ġpuzzles": 4761,
      "Qu": 4762,
      "ib": 4763,
      "Ġremain": 4764,
      "Ġfloating": 4765,
      "Ġvacation": 4766,
      "Ġpist": 4767,
      "Ġpride": 4768,
      "asp": 4769,
      "izard": 4770,
      "Ġbrain": 4771,
      "Ġpistol": 4772,
      "ah": 4773,
      "Ġdaisy": 4774,
      "lend": 4775,
      "sters": 4776,
      "alley": 4777,
      "Ġpoison": 4778,
      "Ġideas": 4779,
      "Ġexercise": 4780,
      "Ġpanic": 4781,
      "Is": 4782,
      "Ġsigh": 4783,
      "aped": 4784,
      "ival": 4785,
      "Welcome": 4786,
      "Ġrow": 4787,
      "ionary": 4788,
      "Ġmass": 4789,
      "osity": 4790,
      "Ġsimp": 4791,
      "anna": 4792,
      "Ġcalend": 4793,
      "Ġignore": 4794,
      "Ġbalan": 4795,
      "Ġcuddled": 4796,
      "ictionary": 4797,
      "Ġshampoo": 4798,
      "Ġdrain": 4799,
      "Ġdestroyed": 4800,
      "Ġcalendar": 4801,
      "Ġpages": 4802,
      "Ġmyself": 4803,
      "Ġdifferen": 4804,
      "Lisa": 4805,
      "Ġachie": 4806,
      "Ġdictionary": 4807,
      "ĠMay": 4808,
      "Ġvalley": 4809,
      "Ġrestore": 4810,
      "Ġyawned": 4811,
      "Ġribbon": 4812,
      "Peter": 4813,
      "big": 4814,
      "Ġga": 4815,
      "Ġrabbits": 4816,
      "Ġtaller": 4817,
      "Ġworms": 4818,
      "Ġcandles": 4819,
      "Ġjewelry": 4820,
      "omeday": 4821,
      "'ve": 4822,
      "osed": 4823,
      "ari": 4824,
      "Ġinclud": 4825,
      "Ġinsisted": 4826,
      "Ġapproached": 4827,
      "Ġairplane": 4828,
      "Ġjazz": 4829,
      "ĠSpike": 4830,
      "Ġmelted": 4831,
      "Ġwaffle": 4832,
      "Ġequ": 4833,
      "Ġstad": 4834,
      "ĠKing": 4835,
      "Ġstadium": 4836,
      "Ġdigg": 4837,
      "Ġwashing": 4838,
      "Ġgear": 4839,
      "Ġsnapped": 4840,
      "Ġcaptain": 4841,
      "Ġlicks": 4842,
      "ission": 4843,
      "Ġdigging": 4844,
      "Jen": 4845,
      "ls": 4846,
      "Ġsty": 4847,
      "Ġstruc": 4848,
      "Ġpermission": 4849,
      "bigail": 4850,
      "Ġstructure": 4851,
      "Ġbill": 4852,
      "Ġhomes": 4853,
      "Ġfest": 4854,
      "ĠJoy": 4855,
      "ĠCo": 4856,
      "Ġmissile": 4857,
      "Ġpatiently": 4858,
      "nies": 4859,
      "riger": 4860,
      "Ġbegged": 4861,
      "ĠMiss": 4862,
      "ĠMimi": 4863,
      "xture": 4864,
      "Ġfloated": 4865,
      "Ġinvite": 4866,
      "Ġrefriger": 4867,
      "Ġmeasured": 4868,
      "Ġrefrigerator": 4869,
      "Ġwizard": 4870,
      "ishing": 4871,
      "Ġweeks": 4872,
      "Ġsandcastle": 4873,
      "Ġsomeday": 4874,
      "Ġshot": 4875,
      "ĠDan": 4876,
      "antly": 4877,
      "Ġplanes": 4878,
      "Ġsub": 4879,
      "ĠBefore": 4880,
      "Ġvehicle": 4881,
      "Ġcrunch": 4882,
      "ĠRuby": 4883,
      "Ġbelieved": 4884,
      "Ġexamine": 4885,
      "ĠFreddy": 4886,
      "Ġsetting": 4887,
      "Ġsigns": 4888,
      "Ġreceived": 4889,
      "Ġres": 4890,
      "Ġalright": 4891,
      "ĠSteve": 4892,
      "Ġtongue": 4893,
      "Ġtutor": 4894,
      "Yuck": 4895,
      "Ġnone": 4896,
      "Ġfuel": 4897,
      "Ġstruggling": 4898,
      "All": 4899,
      "Ġsport": 4900,
      "Ġblood": 4901,
      "Ġteaching": 4902,
      "Ġsolved": 4903,
      "Ġsneeze": 4904,
      "Ġbumped": 4905,
      "ĠPenny": 4906,
      "Ġolive": 4907,
      "ops": 4908,
      "inky": 4909,
      "Ġmodel": 4910,
      "Ġscratch": 4911,
      "Fl": 4912,
      "Ġhers": 4913,
      "Ġblouse": 4914,
      "Ġparts": 4915,
      "Ġencouraged": 4916,
      "Ġbreathe": 4917,
      "Ġdiscuss": 4918,
      "Ġshed": 4919,
      "Ġchores": 4920,
      "Ġthrilled": 4921,
      "ĠRe": 4922,
      "Ġcoats": 4923,
      "Ġjewels": 4924,
      "Ġgrape": 4925,
      "Ġappreciate": 4926,
      "Ġtide": 4927,
      "Ġinvit": 4928,
      "ĠV": 4929,
      "Ġtore": 4930,
      "Ġlily": 4931,
      "Ġmention": 4932,
      "Ġplays": 4933,
      "Ġhits": 4934,
      "Ġbuzzing": 4935,
      "Ġchirping": 4936,
      "fy": 4937,
      "Ġdare": 4938,
      "Ġscore": 4939,
      "Ġpaused": 4940,
      "Ġpulling": 4941,
      "Johnny": 4942,
      "Ġbookshe": 4943,
      "Ġdeeper": 4944,
      "Ġbathe": 4945,
      "Ġcollecting": 4946,
      "Ġmarbles": 4947,
      "Ġbleed": 4948,
      "Ġbang": 4949,
      "Ġgust": 4950,
      "Ġunite": 4951,
      "Ġsparkles": 4952,
      "Ġstomach": 4953,
      "Mark": 4954,
      "Ġnation": 4955,
      "Ġupstairs": 4956,
      "Ġprovide": 4957,
      "Ġdifference": 4958,
      "Ġsew": 4959,
      "Ġsupposed": 4960,
      "Ġburning": 4961,
      "Ġpunish": 4962,
      "Ġsausage": 4963,
      "Ġjail": 4964,
      "Ġcub": 4965,
      "Ġclimbs": 4966,
      "iers": 4967,
      "htray": 4968,
      "Ġashtray": 4969,
      "Ġsunlight": 4970,
      "ĠEveryday": 4971,
      "Ġglowed": 4972,
      "ÅĵNo": 4973,
      "Ġattached": 4974,
      "Ġneighborhood": 4975,
      "fied": 4976,
      "uggage": 4977,
      "Ġlabel": 4978,
      "Ġtornado": 4979,
      "Ġfestival": 4980,
      "Not": 4981,
      "Ġluggage": 4982,
      "Ġwhip": 4983,
      "Ġnewsp": 4984,
      "ĠBuzz": 4985,
      "ĠPeople": 4986,
      "ĠFo": 4987,
      "Ġreplace": 4988,
      "Ġwhistling": 4989,
      "Ġnewspap": 4990,
      "Ġhesit": 4991,
      "ĠHave": 4992,
      "Ġeff": 4993,
      "allen": 4994,
      "Ġgirls": 4995,
      "Ġmanage": 4996,
      "Ġjogging": 4997,
      "Ġteasp": 4998,
      "Ġwarning": 4999,
      "Ġteaspoon": 5000,
      "These": 5001,
      "Ġlic": 5002,
      "ĠMaggie": 5003,
      "umble": 5004,
      "Ġbirdc": 5005,
      "Ġfasc": 5006,
      "Ġgifts": 5007,
      "Ġdiscovery": 5008,
      "Ġtwisted": 5009,
      "Ġroot": 5010,
      "emember": 5011,
      "Ġbookshelf": 5012,
      "Ġbirdcage": 5013,
      "act": 5014,
      "eed": 5015,
      "Ġmeowed": 5016,
      "Ġchallen": 5017,
      "Ġweapon": 5018,
      "xy": 5019,
      "Ġsip": 5020,
      "ĠTina": 5021,
      "Ġlaid": 5022,
      "Ġoper": 5023,
      "Ġcollection": 5024,
      "Ġcomfy": 5025,
      "Ġguy": 5026,
      "ĠLuna": 5027,
      "Ġdrinking": 5028,
      "Ġsafari": 5029,
      "Ġrush": 5030,
      "Ġsoldiers": 5031,
      "Ġbricks": 5032,
      "Ġrepeat": 5033,
      "Ġfut": 5034,
      "Ġemer": 5035,
      "ĠIs": 5036,
      "Ġranch": 5037,
      "Ġelephants": 5038,
      "Ġactually": 5039,
      "ities": 5040,
      "Ġstitch": 5041,
      "Ġremained": 5042,
      "Ġfuture": 5043,
      "Ġhanger": 5044,
      "Ġlick": 5045,
      "Ġchir": 5046,
      "Ġgrey": 5047,
      "Before": 5048,
      "bers": 5049,
      "Ġmall": 5050,
      "Ġgain": 5051,
      "Ġbeg": 5052,
      "Ġwatered": 5053,
      "ĠGood": 5054,
      "Ġsits": 5055,
      "Ġdecorations": 5056,
      "Ġawe": 5057,
      "Ġblueberry": 5058,
      "Ġmassage": 5059,
      "Ġfascin": 5060,
      "Ġchirped": 5061,
      "rise": 5062,
      "ĠLater": 5063,
      "Ġmeasuring": 5064,
      "do": 5065,
      "Ġscur": 5066,
      "Ġflood": 5067,
      "Ġcurled": 5068,
      "Ġurge": 5069,
      "Ġsprinkles": 5070,
      "Ġgrocery": 5071,
      "nie": 5072,
      "Ġbak": 5073,
      "Ġrhy": 5074,
      "Ġprayed": 5075,
      "allow": 5076,
      "Ġdecision": 5077,
      "ĠChirp": 5078,
      "Ġpatterns": 5079,
      "mother": 5080,
      "bbled": 5081,
      "ipment": 5082,
      "Ġwherever": 5083,
      "Ġcontain": 5084,
      "Ġbites": 5085,
      "Ġlicense": 5086,
      "Ġsore": 5087,
      "Ġwatches": 5088,
      "Ġfixing": 5089,
      "Ġsatis": 5090,
      "Ġbuildings": 5091,
      "Ġproblems": 5092,
      "Ġequipment": 5093,
      "oved": 5094,
      "Ġprice": 5095,
      "Ok": 5096,
      "walk": 5097,
      "Ġtoe": 5098,
      "Ġfireworks": 5099,
      "Ġobserve": 5100,
      "Ġdoggy": 5101,
      "Ġcrunchy": 5102,
      "Ġfed": 5103,
      "Ġlect": 5104,
      "Ġworse": 5105,
      "Ġtease": 5106,
      "Ġraised": 5107,
      "Ġcrashed": 5108,
      "Ġeasier": 5109,
      "Emily": 5110,
      "sity": 5111,
      "utty": 5112,
      "Ġsunrise": 5113,
      "Ġzero": 5114,
      "Ġvel": 5115,
      "Ġnewspaper": 5116,
      "Ġcakes": 5117,
      "Ġsoared": 5118,
      "Ġinvitation": 5119,
      "Ġlecture": 5120,
      "Ġvelvet": 5121,
      "Mmm": 5122,
      "ude": 5123,
      "Ġduring": 5124,
      "Ġpigs": 5125,
      "Ġwhistled": 5126,
      "Ġsliding": 5127,
      "Ġmemory": 5128,
      "Ġsuffer": 5129,
      "Ġeffort": 5130,
      "\",": 5131,
      "Ġracing": 5132,
      "Ġpeanuts": 5133,
      "Ġreceive": 5134,
      "Ġgrinned": 5135,
      "!'": 5136,
      "ging": 5137,
      "Ġflav": 5138,
      "thm": 5139,
      "Ġsidewalk": 5140,
      "Ġbathrobe": 5141,
      "Ġstrang": 5142,
      "Ġclearing": 5143,
      "ÅĵThatÃ¢": 5144,
      "Ġrefreshed": 5145,
      "Ġmitten": 5146,
      "seek": 5147,
      "Ġtremb": 5148,
      "Ġpeered": 5149,
      "Ġzipped": 5150,
      "Ġplanted": 5151,
      "Ġearthqu": 5152,
      "Ġrecognized": 5153,
      "Ouch": 5154,
      "Ġbes": 5155,
      "Ġbeat": 5156,
      "Ġsocks": 5157,
      "Ġskipping": 5158,
      "Ġappear": 5159,
      "Ġmarching": 5160,
      "ĠOllie": 5161,
      "Ġwre": 5162,
      "Ġwid": 5163,
      "Ġremem": 5164,
      "Ġturning": 5165,
      "Ġchewed": 5166,
      "Ġcartoons": 5167,
      "Ġsurrounded": 5168,
      "cles": 5169,
      "uing": 5170,
      "Ġwarn": 5171,
      "Ġbrick": 5172,
      "Ġsimple": 5173,
      "Ġbillboard": 5174,
      "cious": 5175,
      "Ġcompany": 5176,
      "Ġrespons": 5177,
      "Ġtracks": 5178,
      "Ġremembers": 5179,
      "Jake": 5180,
      "son": 5181,
      "Ġrust": 5182,
      "ĠMat": 5183,
      "Ġspit": 5184,
      "Ġbrus": 5185,
      "Ġhated": 5186,
      "Ġpastel": 5187,
      "ÅĵIÃ¢": 5188,
      "Ġhurric": 5189,
      "Ġrhythm": 5190,
      "oming": 5191,
      "Ġonwards": 5192,
      "aded": 5193,
      "Ġpossible": 5194,
      "Ġrested": 5195,
      "Ġbuckle": 5196,
      "Ġsnail": 5197,
      "Ġfirefight": 5198,
      "Ġheat": 5199,
      "Ġescaped": 5200,
      "Ġdinosaurs": 5201,
      "Ġordered": 5202,
      "Ġadmiring": 5203,
      "Ġstrangers": 5204,
      "Ġleather": 5205,
      "Ġslice": 5206,
      "Ġuniverse": 5207,
      "Ġoperation": 5208,
      "Ġhurricane": 5209,
      "Ġworks": 5210,
      "Ġlands": 5211,
      "Ġmountains": 5212,
      "Ġtomatoes": 5213,
      "Ġuniversity": 5214,
      "Ġdisagreed": 5215,
      "Ġmineral": 5216,
      "Ġpitch": 5217,
      "Ġhappiest": 5218,
      "Ġwanting": 5219,
      "!\",": 5220,
      "Ġours": 5221,
      "Ġcontinue": 5222,
      "Ġtwigs": 5223,
      "Ġbeside": 5224,
      "ĠMilly": 5225,
      "Ġhurried": 5226,
      "Moral": 5227,
      "Ġhate": 5228,
      "atch": 5229,
      "Ġnavy": 5230,
      "amie": 5231,
      "ĠMe": 5232,
      "Ġweren": 5233,
      "Ġrevealed": 5234,
      "Ġstyle": 5235,
      "loe": 5236,
      "Ġobe": 5237,
      "Ġrained": 5238,
      "Ġperched": 5239,
      "Ġseats": 5240,
      "unday": 5241,
      "apping": 5242,
      "Ġspaces": 5243,
      "Ġserved": 5244,
      "Ġfolded": 5245,
      "Ġprepared": 5246,
      "Ġoats": 5247,
      "Ġreminder": 5248,
      "Ġmenu": 5249,
      "ases": 5250,
      "Ġshopping": 5251,
      "Ġmouths": 5252,
      "Ġselling": 5253,
      "Ġagreement": 5254,
      "Ġearthquake": 5255,
      "cc": 5256,
      "adly": 5257,
      "Ġweight": 5258,
      "Ġpoppy": 5259,
      "Ġbrand": 5260,
      "Ġcrept": 5261,
      "Ġpracticing": 5262,
      "Would": 5263,
      "ĠSunday": 5264,
      "Ġkeeper": 5265,
      "Ġbringing": 5266,
      "Ġpupil": 5267,
      "hest": 5268,
      "Ġevent": 5269,
      "ddy": 5270,
      "ĠLiz": 5271,
      "Ġpaints": 5272,
      "Ġsecrets": 5273,
      "Ġcircus": 5274,
      "Ġwisdom": 5275,
      "Ġsings": 5276,
      "Ġfash": 5277,
      "Ġkindly": 5278,
      "Ġmonsters": 5279,
      "Ġanswers": 5280,
      "mble": 5281,
      "enty": 5282,
      "Ġeveryday": 5283,
      "Ġslip": 5284,
      "Ġpetted": 5285,
      "Ġdrinks": 5286,
      "Ġsettle": 5287,
      "Ġmister": 5288,
      "amb": 5289,
      "indy": 5290,
      "ĠFro": 5291,
      "Ġfamil": 5292,
      "ÅĵWe": 5293,
      "Ġspoons": 5294,
      "Ġobey": 5295,
      "Sh": 5296,
      "Tweet": 5297,
      "Yum": 5298,
      "dam": 5299,
      "ĠAbigail": 5300,
      "Ġcopper": 5301,
      "Ġanytime": 5302,
      "Ġimage": 5303,
      "ĠNutty": 5304,
      "Ġcuriosity": 5305,
      "Ġswims": 5306,
      "Ġprecious": 5307,
      "Ġsneezed": 5308,
      "Susie": 5309,
      "Ġbrings": 5310,
      "Ġrang": 5311,
      "Ġmuddy": 5312,
      "Ġtalent": 5313,
      "Ġguessed": 5314,
      "igz": 5315,
      "Ġspill": 5316,
      "Ġtrapped": 5317,
      "Ġcomple": 5318,
      "Ġvisiting": 5319,
      "len": 5320,
      "Ġbare": 5321,
      "Ġtremble": 5322,
      "Ġgotten": 5323,
      "Ġcutting": 5324,
      "Ġvillag": 5325,
      "Ġapologize": 5326,
      "Ġscratched": 5327,
      "Ġpotatoes": 5328,
      "Ġbeneath": 5329,
      "ĠSomeone": 5330,
      "Ro": 5331,
      "ĠTiny": 5332,
      "Ġpedal": 5333,
      "ĠBetsy": 5334,
      "Ġsubway": 5335,
      "Le": 5336,
      "tory": 5337,
      "Ġhistory": 5338,
      "Ġweighed": 5339,
      "Ġstruggled": 5340,
      "ĠZoe": 5341,
      "Ġpermit": 5342,
      "Ġolives": 5343,
      "Ready": 5344,
      "Ġitems": 5345,
      "Ex": 5346,
      "Ġx": 5347,
      "ĠJe": 5348,
      "Ġknelt": 5349,
      "Ġmeow": 5350,
      "Ġflap": 5351,
      "Ġbeds": 5352,
      "Ġwaits": 5353,
      "ĠKatie": 5354,
      "Ġfashion": 5355,
      "ding": 5356,
      "Ġcal": 5357,
      "Ġglitter": 5358,
      "Ġcreation": 5359,
      "ĠNot": 5360,
      "Ġpillows": 5361,
      "ley": 5362,
      "ĠHoppy": 5363,
      "Ġofficer": 5364,
      "ĠLetÃ¢": 5365,
      "Ġwaffles": 5366,
      "Really": 5367,
      "ĠChirpy": 5368,
      "terday": 5369,
      "anta": 5370,
      "izing": 5371,
      "Ġcatching": 5372,
      "Ġactiv": 5373,
      "Ġargued": 5374,
      "Ġsucceeded": 5375,
      "Ġcostumes": 5376,
      "Ġpadd": 5377,
      "neath": 5378,
      "Ġsix": 5379,
      "Ġbones": 5380,
      "Ġmice": 5381,
      "riage": 5382,
      "ĠCat": 5383,
      "Ġgrandmother": 5384,
      "Ġornament": 5385,
      "First": 5386,
      "Ġscoop": 5387,
      "Ġbowed": 5388,
      "Ġscreams": 5389,
      "Ġzooming": 5390,
      "Ġexamined": 5391,
      "Ġneighbourhood": 5392,
      "Ġfascinated": 5393,
      "Ġvillagers": 5394,
      "Dave": 5395,
      "uke": 5396,
      "Ġbun": 5397,
      "Ġarea": 5398,
      "ĠFirst": 5399,
      "looking": 5400,
      "Ġlips": 5401,
      "Fluffy": 5402,
      "Ġexact": 5403,
      "Ġlets": 5404,
      "Ġstudied": 5405,
      "xygen": 5406,
      "Ġpeel": 5407,
      "Ġglo": 5408,
      "ĠCla": 5409,
      "joyed": 5410,
      "Ġperfor": 5411,
      "Ġshadows": 5412,
      "rin": 5413,
      "Ġsoaring": 5414,
      "Ġoverjoyed": 5415,
      "ÅĵThank": 5416,
      "Ġcomforted": 5417,
      "Ġpinched": 5418,
      "Ġbegin": 5419,
      "Ġwaist": 5420,
      "etch": 5421,
      "Ġwhatever": 5422,
      "Ġpets": 5423,
      "Ġfreeze": 5424,
      "ĠHowever": 5425,
      "igzag": 5426,
      "Ġsitu": 5427,
      "Ġlemons": 5428,
      "Ġspaceship": 5429,
      "Ġgained": 5430,
      "Ġvowed": 5431,
      "Ġrides": 5432,
      "Ġencourage": 5433,
      "kins": 5434,
      "Ġdecides": 5435,
      "Ġtune": 5436,
      "ĠRemy": 5437,
      "omething": 5438,
      "Ġbrushed": 5439,
      "Ġsadness": 5440,
      "Ġdisturbed": 5441,
      "ĠSuzy": 5442,
      "Ġwreck": 5443,
      "Luckily": 5444,
      "ears": 5445,
      "gers": 5446,
      "Ġtip": 5447,
      "icorn": 5448,
      "Ġunicorn": 5449,
      "Ġbunnies": 5450,
      "Ġstruck": 5451,
      "ĠPoppy": 5452,
      "avid": 5453,
      "Andy": 5454,
      "ĠOnce": 5455,
      "Ġoxygen": 5456,
      "Ġsting": 5457,
      "Ġoutdo": 5458,
      "Ġwooden": 5459,
      "Ġdrift": 5460,
      "Ġpancakes": 5461,
      "ien": 5462,
      "Ġallow": 5463,
      "Ġwond": 5464,
      "Ġaccidents": 5465,
      "Ġmarkers": 5466,
      "Ġeagle": 5467,
      "Ġsatisfied": 5468,
      "Ġlines": 5469,
      "ays": 5470,
      "Ġneighbors": 5471,
      "ĠChr": 5472,
      "Ġrecognize": 5473,
      "Sometimes": 5474,
      "Ġripped": 5475,
      "ĠAm": 5476,
      "Ġaccom": 5477,
      "Ġspiders": 5478,
      "Ġnails": 5479,
      "ĠSharing": 5480,
      "Ġstripes": 5481,
      "ĠCoco": 5482,
      "Ġbleeding": 5483,
      "Ġgloves": 5484,
      "Ġbrid": 5485,
      "isten": 5486,
      "Ġpretti": 5487,
      "Ġunderground": 5488,
      "Ġguns": 5489,
      "Ġprettiest": 5490,
      "ales": 5491,
      "Ġtour": 5492,
      "ĠBeth": 5493,
      "Ġdownstairs": 5494,
      "Ġslapped": 5495,
      "Ġunderneath": 5496,
      "Ġrocked": 5497,
      "ĠBubbles": 5498,
      "Ġintroduc": 5499,
      "Ġexactly": 5500,
      "ĠAn": 5501,
      "Ġowned": 5502,
      "ĠSpark": 5503,
      "Ġdecorated": 5504,
      "Ġcaut": 5505,
      "ĠItÃ¢": 5506,
      "Ġloving": 5507,
      "Ġprune": 5508,
      "Ġbeha": 5509,
      "Ġtravell": 5510,
      "Ġinstruct": 5511,
      "Ġrele": 5512,
      "Ġlandsc": 5513,
      "Ġprotected": 5514,
      "Ġcuddle": 5515,
      "Ġacorns": 5516,
      "Ġbarely": 5517,
      "Ġrealize": 5518,
      "Ġvoices": 5519,
      "Ġprinter": 5520,
      "Ġtugged": 5521,
      "ÅĵDon": 5522,
      "Ġstretching": 5523,
      "Ġtwirling": 5524,
      "Ġpiles": 5525,
      "Ġstealing": 5526,
      "Ġemergen": 5527,
      "Ġdied": 5528,
      "Ġloose": 5529,
      "Ġsuitc": 5530,
      "Ġmission": 5531,
      "Ġbouncy": 5532,
      "Ġunlocked": 5533,
      "annah": 5534,
      "Ġaccompl": 5535,
      "Ġbridges": 5536,
      "zie": 5537,
      "ica": 5538,
      "Ġbye": 5539,
      "ÅĵLook": 5540,
      "Ġparked": 5541,
      "Ġsolut": 5542,
      "Ġtickets": 5543,
      "ĠUncle": 5544,
      "Ġchallenge": 5545,
      "Un": 5546,
      "Ġnicer": 5547,
      "Ġvict": 5548,
      "Ġfoods": 5549,
      "Ġyelling": 5550,
      "Ġladyb": 5551,
      "Ġplanned": 5552,
      "ĠFloppy": 5553,
      "Ġwinning": 5554,
      "âĤ¬âĢĿ": 5555,
      "ĠJulie": 5556,
      "Ġcompleted": 5557,
      "Ġbank": 5558,
      "ilo": 5559,
      "Ġsoak": 5560,
      "Ġexit": 5561,
      "ffic": 5562,
      "Ġtraffic": 5563,
      "Ġpupp": 5564,
      "Ġloaded": 5565,
      "Ġmater": 5566,
      "Ġmittens": 5567,
      "ĠBig": 5568,
      "ĠPip": 5569,
      "Ġmateri": 5570,
      "edding": 5571,
      "ashed": 5572,
      "Ġvent": 5573,
      "Ġbudge": 5574,
      "ÅĵCan": 5575,
      "Ġwrites": 5576,
      "Ġbreaking": 5577,
      "ĠOl": 5578,
      "Ġsights": 5579,
      "Ġbloomed": 5580,
      "Ġincrease": 5581,
      "Ġmentioned": 5582,
      "Ġlandscape": 5583,
      "Ġpearl": 5584,
      "thank": 5585,
      "Ġsteel": 5586,
      "Ġtastes": 5587,
      "Ġmuscles": 5588,
      "Ġdoctors": 5589,
      "ĠFrank": 5590,
      "Ġproperly": 5591,
      "Or": 5592,
      "Ġago": 5593,
      "ĠLucky": 5594,
      "bert": 5595,
      "ulu": 5596,
      "George": 5597,
      "Rex": 5598,
      "Joey": 5599,
      "Ġcontro": 5600,
      "Ġbottles": 5601,
      "Ġstirring": 5602,
      "Ġstamps": 5603,
      "Ġscurried": 5604,
      "zing": 5605,
      "ĠThese": 5606,
      "Ġbend": 5607,
      "Ġstair": 5608,
      "Ġkeeps": 5609,
      "ĠAnne": 5610,
      "Ġpowers": 5611,
      "Happy": 5612,
      "Ġwonders": 5613,
      "Paul": 5614,
      "mare": 5615,
      "ury": 5616,
      "Ġdent": 5617,
      "Ġpears": 5618,
      "Ġopin": 5619,
      "Ġjogged": 5620,
      "aster": 5621,
      "Ġshoulders": 5622,
      "Ġfiremen": 5623,
      "Ġprinted": 5624,
      "Ġpunished": 5625,
      "Ġoutdoors": 5626,
      "Ġinstructions": 5627,
      "Ġchef": 5628,
      "Ġwondering": 5629,
      "uesday": 5630,
      "ux": 5631,
      "ĠSomething": 5632,
      "Ġstole": 5633,
      "Ġwinner": 5634,
      "Bobby": 5635,
      "Mar": 5636,
      "die": 5637,
      "shing": 5638,
      "Ġpies": 5639,
      "ĠTw": 5640,
      "imy": 5641,
      "Ġcrumb": 5642,
      "Ġzigzag": 5643,
      "Ġruin": 5644,
      "iggy": 5645,
      "Ġgiggling": 5646,
      "Ġgathering": 5647,
      "Ġpouring": 5648,
      "Ġfigured": 5649,
      "bric": 5650,
      "nes": 5651,
      "oed": 5652,
      "Ġlux": 5653,
      "ishes": 5654,
      "Ġfabric": 5655,
      "Ġnightmare": 5656,
      "Ġburrow": 5657,
      "Ġincluded": 5658,
      "rr": 5659,
      "Ġtwinkling": 5660,
      "ednes": 5661,
      "ĠSanta": 5662,
      "Ġcones": 5663,
      "ĠKe": 5664,
      "Ġplanets": 5665,
      "Ġapplauded": 5666,
      "ednesday": 5667,
      "Ġwagging": 5668,
      "ĠTuesday": 5669,
      "Ġeast": 5670,
      "Ġyouth": 5671,
      "usan": 5672,
      "Ġseason": 5673,
      "Teddy": 5674,
      "zen": 5675,
      "ĠQu": 5676,
      "Ġwest": 5677,
      "Ġwedding": 5678,
      "Ġtonight": 5679,
      "Ġdam": 5680,
      "Ġlied": 5681,
      "Ġstrings": 5682,
      "though": 5683,
      "Ġbuckets": 5684,
      "Ġkeys": 5685,
      "Ġentire": 5686,
      "Ġsupplies": 5687,
      "Ġshivered": 5688,
      "Ġurged": 5689,
      "uly": 5690,
      "Ġgrant": 5691,
      "ĠCar": 5692,
      "Afterwards": 5693,
      "Ġhonk": 5694,
      "Ġsilence": 5695,
      "Ġemergency": 5696,
      "Ġinch": 5697,
      "Ġbeard": 5698,
      "Ġweb": 5699,
      "ĠBir": 5700,
      "Ġtexture": 5701,
      "ĠCarl": 5702,
      "ledge": 5703,
      "Ġforgi": 5704,
      "Ġguest": 5705,
      "uctantly": 5706,
      "Ġconfident": 5707,
      "Ġpurred": 5708,
      "Ġroaring": 5709,
      "ĠWednesday": 5710,
      "ĠDid": 5711,
      "Ġpebbles": 5712,
      "Ġteasing": 5713,
      "ÅĵThis": 5714,
      "Ġmarriage": 5715,
      "Ġrainbows": 5716,
      "Ġintroduce": 5717,
      "bies": 5718,
      "Ġknowledge": 5719,
      "avi": 5720,
      "lowly": 5721,
      "Ġintroduced": 5722,
      "Bella": 5723,
      "Pete": 5724,
      "uzz": 5725,
      "Ġsi": 5726,
      "omas": 5727,
      "Ġsoaked": 5728,
      "Ġbabies": 5729,
      "Ġtouching": 5730,
      "Ġsnowball": 5731,
      "Ġacted": 5732,
      "Ġsurface": 5733,
      "Ġresponsible": 5734,
      "Ġsorting": 5735,
      "Ġeats": 5736,
      "Ġrocking": 5737,
      "Ġfrosting": 5738,
      "Ġsneaked": 5739,
      "Ġbrushes": 5740,
      ".'": 5741,
      "ora": 5742,
      "Ġreleased": 5743,
      "Remember": 5744,
      "lee": 5745,
      "Ġclick": 5746,
      "Ġourselves": 5747,
      "Ġsteep": 5748,
      "Ġfrozen": 5749,
      "ĠChloe": 5750,
      "Ġclaps": 5751,
      "Ġcontrol": 5752,
      "hins": 5753,
      "aky": 5754,
      "ĠJosh": 5755,
      "ĠletÃ¢": 5756,
      "Ġcontest": 5757,
      "izzie": 5758,
      "exp": 5759,
      "Ġtickle": 5760,
      "Ġmovies": 5761,
      "Ġrubbing": 5762,
      "Cl": 5763,
      "Ġsides": 5764,
      "Ġeight": 5765,
      "Ġpeaches": 5766,
      "Ġpockets": 5767,
      "Ġfart": 5768,
      "Ġann": 5769,
      "Ġdragged": 5770,
      "Ġstorekeeper": 5771,
      "Ġreluctantly": 5772,
      "Ġmatching": 5773,
      "Ġsisters": 5774,
      "Ġexpected": 5775,
      "Ġpoliceman": 5776,
      "Ġhorns": 5777,
      "Ella": 5778,
      "Ġbunch": 5779,
      "Ġcape": 5780,
      "ĠSunny": 5781,
      "Ġshock": 5782,
      "inda": 5783,
      "ĠJan": 5784,
      "bbing": 5785,
      "Ġgreet": 5786,
      "Ġpaintings": 5787,
      "Ġdragons": 5788,
      "Ġscreaming": 5789,
      "Ġmixing": 5790,
      "Ġspraying": 5791,
      "Ġcompetition": 5792,
      "Ġdemanded": 5793,
      "ody": 5794,
      "va": 5795,
      "ira": 5796,
      "Ġplenty": 5797,
      "Ġbecoming": 5798,
      "Ġsorted": 5799,
      "ĠRa": 5800,
      "Ġsinger": 5801,
      "Ġproject": 5802,
      "Ġinterest": 5803,
      "ĠStop": 5804,
      "Ġshivering": 5805,
      "expected": 5806,
      "ĠHop": 5807,
      "ason": 5808,
      "Ġbravery": 5809,
      "Ġunexpected": 5810,
      "Ġdeser": 5811,
      "Ġresult": 5812,
      "Ġsituation": 5813,
      "Lola": 5814,
      "Ġruler": 5815,
      "Ġmachines": 5816,
      "Ġcrowd": 5817,
      "Ġsolution": 5818,
      "Mr": 5819,
      "ĠLike": 5820,
      "Ġwritten": 5821,
      "Ġowners": 5822,
      "ĠJohnson": 5823,
      "Ġdolphins": 5824,
      "Ġpoking": 5825,
      "Ġtruly": 5826,
      "Ġdraws": 5827,
      "Ġzookeeper": 5828,
      "Goodbye": 5829,
      "ĠSure": 5830,
      "Ġchat": 5831,
      "Ġprints": 5832,
      "Ġmatched": 5833,
      "Ġshelves": 5834,
      "Ġdiscovering": 5835,
      "Ġcountryside": 5836,
      "ÅĵDonÃ¢": 5837,
      "Ġsuitcase": 5838,
      "Ġluxury": 5839,
      "vin": 5840,
      "Ġsway": 5841,
      "reen": 5842,
      "Ġrelease": 5843,
      "usted": 5844,
      "ĠAlways": 5845,
      "iar": 5846,
      "Ġda": 5847,
      "ayla": 5848,
      "Ġgoals": 5849,
      "Ġgoodnight": 5850,
      "Ġexpect": 5851,
      "Ġpassing": 5852,
      "Ġchewing": 5853,
      "Ġcrackers": 5854,
      "Ġblooming": 5855,
      "Ġbalancing": 5856,
      "Ġachieve": 5857,
      "Ġcautious": 5858,
      "Ġvictory": 5859,
      "James": 5860,
      "fit": 5861,
      "you": 5862,
      "ern": 5863,
      "Ġpout": 5864,
      "irm": 5865,
      "Ġhugging": 5866,
      "Ġslimy": 5867,
      "Ġwaiter": 5868,
      "Ġcurtains": 5869,
      "Ye": 5870,
      "Ġfetch": 5871,
      "vers": 5872,
      "Ġblink": 5873,
      "ults": 5874,
      "Ġhighest": 5875,
      "Ġcheering": 5876,
      "ĠBuzzy": 5877,
      "Ġmuffins": 5878,
      "lowers": 5879,
      "Ġdirection": 5880,
      "Ġguys": 5881,
      "Ġtrembling": 5882,
      "Ġdentist": 5883,
      "jam": 5884,
      "rance": 5885,
      "hell": 5886,
      "ĠAdam": 5887,
      "ĠJamie": 5888,
      "Ġranger": 5889,
      "ĠLulu": 5890,
      "Ġkicking": 5891,
      "Ġmotion": 5892,
      "Ġrecorded": 5893,
      "Ġcamping": 5894,
      "Ġstruggle": 5895,
      "Ġsiren": 5896,
      "icky": 5897,
      "Ġsweets": 5898,
      "Ġcreating": 5899,
      "Ġhealed": 5900,
      "Ġdusty": 5901,
      "int": 5902,
      "iles": 5903,
      "Ġoutfit": 5904,
      "Ġhomework": 5905,
      "ÅĵHello": 5906,
      "Ġpolishing": 5907,
      "Ġpastries": 5908,
      "Ġrelief": 5909,
      "Ġdesp": 5910,
      "Ġroads": 5911,
      "ĠUnfortunately": 5912,
      "ĠMatt": 5913,
      "ĠJeff": 5914,
      "Kitty": 5915,
      "appy": 5916,
      "cers": 5917,
      "udy": 5918,
      "itely": 5919,
      "ĠcanÃ¢": 5920,
      "oline": 5921,
      "Ġmarker": 5922,
      "Grace": 5923,
      "Ġlibrarian": 5924,
      "Ġcent": 5925,
      "Ġstaring": 5926,
      "ĠDavid": 5927,
      "Ġprayer": 5928,
      "Ġstudying": 5929,
      "Ġsausages": 5930,
      "Ġladybug": 5931,
      "Ġventured": 5932,
      "Mike": 5933,
      "Ġspike": 5934,
      "Ġexha": 5935,
      "Ġchips": 5936,
      "Ġbroom": 5937,
      "Ġpastels": 5938,
      "Ġcurly": 5939,
      "Ġcompletely": 5940,
      "Ġdisagree": 5941,
      "ivery": 5942,
      "Ġti": 5943,
      "Ġstare": 5944,
      "agull": 5945,
      "Ġchases": 5946,
      "ÅĵOh": 5947,
      "Ġimportance": 5948,
      "Ġbaked": 5949,
      "...": 5950,
      "Yeah": 5951,
      "Maggie": 5952,
      "Ġ1": 5953,
      "Ġtim": 5954,
      "Ġwound": 5955,
      "ĠFor": 5956,
      "ĠRob": 5957,
      "Ġdrives": 5958,
      "Millie": 5959,
      "Ġworries": 5960,
      "asm": 5961,
      "essie": 5962,
      "ĠCindy": 5963,
      "Ġsweeties": 5964,
      "Ġarrive": 5965,
      "Ġdesert": 5966,
      "Ġscru": 5967,
      "However": 5968,
      "Ġpenguins": 5969,
      "Ġkneeled": 5970,
      "Ġfirm": 5971,
      "immer": 5972,
      "ĠBy": 5973,
      "Ġseagull": 5974,
      "ĠJones": 5975,
      "Ġscra": 5976,
      "Ġscales": 5977,
      "Ġprun": 5978,
      "Ġpartic": 5979,
      "Ġthreat": 5980,
      "Ah": 5981,
      "ĠTilly": 5982,
      "Ġthro": 5983,
      "Ġshined": 5984,
      "Ġsnugg": 5985,
      "Ġnetwork": 5986,
      "Ġrescued": 5987,
      "Ġrepeated": 5988,
      "Ġgazed": 5989,
      "Ġactivities": 5990,
      "Ġexhausted": 5991,
      "Alex": 5992,
      "Fr": 5993,
      "Ġfreed": 5994,
      "iding": 5995,
      "esome": 5996,
      "opes": 5997,
      "Ġcaused": 5998,
      "Ġentrance": 5999,
      "Ġarguing": 6000,
      "Ġthroat": 6001,
      "Ġcash": 6002,
      "Ġheel": 6003,
      "irts": 6004,
      "Ġtheirs": 6005,
      "Ġslap": 6006,
      "Ġfoc": 6007,
      "Ġunited": 6008,
      "Ġpatted": 6009,
      "Ġtrips": 6010,
      "Ġsnakes": 6011,
      "Ġwandering": 6012,
      "Ġleader": 6013,
      "Ġinclude": 6014,
      "Mittens": 6015,
      "Ġast": 6016,
      "ĠSadly": 6017,
      "ĠSusan": 6018,
      "igi": 6019,
      "Ġtowels": 6020,
      "Ġsticking": 6021,
      "ĠwasnÃ¢": 6022,
      "Ġpeeking": 6023,
      "Ġribbons": 6024,
      "Ġregretted": 6025,
      "Ġfarther": 6026,
      "jamas": 6027,
      "go": 6028,
      "Ġwink": 6029,
      "Ġfara": 6030,
      "Ġlamb": 6031,
      "Ġheav": 6032,
      "Ġboom": 6033,
      "ĠLou": 6034,
      "Ġcomm": 6035,
      "Ġdelivery": 6036,
      "Ġseesaw": 6037,
      "Ġpatience": 6038,
      "Ġobserved": 6039,
      "Ġquacked": 6040,
      "Ġparticular": 6041,
      "Ġfaraway": 6042,
      "ik": 6043,
      "hello": 6044,
      "Ġbead": 6045,
      "alph": 6046,
      "Ġrolls": 6047,
      "Ġreaching": 6048,
      "Grandpa": 6049,
      "Ġseems": 6050,
      "Mrs": 6051,
      "Ġstartled": 6052,
      "Ġlearns": 6053,
      "Ġcatches": 6054,
      "Ġusual": 6055,
      "Ġsingle": 6056,
      "Ġpolished": 6057,
      "Ġawesome": 6058,
      "ne": 6059,
      "ĠĊĠ": 6060,
      "ĠJon": 6061,
      "Ġfault": 6062,
      "Ġhowever": 6063,
      "ÅĵWhy": 6064,
      "ĠGr": 6065,
      "Sophie": 6066,
      "ĠyouÃ¢": 6067,
      "acob": 6068,
      "Ġsafer": 6069,
      "Ġorganizing": 6070,
      "Ġcrabs": 6071,
      "ĠZoom": 6072,
      "Ġreveal": 6073,
      "Ġsquealed": 6074,
      "Ġfirefighters": 6075,
      "Ġcrumbs": 6076,
      "Bun": 6077,
      "Harry": 6078,
      "Ġdared": 6079,
      "Ġflat": 6080,
      "Ġremoved": 6081,
      "Ġmarks": 6082,
      "ĠOut": 6083,
      "Ġtraveled": 6084,
      "ĠChrist": 6085,
      "dies": 6086,
      "Ġliqu": 6087,
      "Ġleap": 6088,
      "ĠMomo": 6089,
      "ÅĵMommy": 6090,
      "Ġrestored": 6091,
      "Ġdarkness": 6092,
      "Ġinviting": 6093,
      "Ġvanish": 6094,
      "Ġsandcastles": 6095,
      "ĠSuzie": 6096,
      "Ġherbs": 6097,
      "Ġdirect": 6098,
      "Ġopinion": 6099,
      "Ġliquid": 6100,
      "Ġboo": 6101,
      "ĠSlowly": 6102,
      "Ġstolen": 6103,
      "Ġstrike": 6104,
      "cuse": 6105,
      "Henry": 6106,
      "mas": 6107,
      "njoy": 6108,
      "ĠBye": 6109,
      "umm": 6110,
      "aced": 6111,
      "Ġpajamas": 6112,
      "Ġcuts": 6113,
      "Ġvalued": 6114,
      "Ġcoloured": 6115,
      "Ġtickled": 6116,
      "Ġwiggled": 6117,
      "ĠClaire": 6118,
      "Fred": 6119,
      "pe": 6120,
      "ords": 6121,
      "ĠMart": 6122,
      "Ġroots": 6123,
      "ĠLizzy": 6124,
      "Ġadding": 6125,
      "Ġstroll": 6126,
      "Ġgaze": 6127,
      "ĠFollow": 6128,
      "Leo": 6129,
      "Ġpaddled": 6130,
      "ences": 6131,
      "ĠLuke": 6132,
      "Ġchuck": 6133,
      "Ġresting": 6134,
      "Ġgrowl": 6135,
      "Annie": 6136,
      "Excuse": 6137,
      "Ġinterested": 6138,
      "ĠChristmas": 6139,
      "ĠYes": 6140,
      "Ġcause": 6141,
      "ently": 6142,
      "Ġfaced": 6143,
      "ĠEarth": 6144,
      "Ġswooped": 6145,
      "Ġeverybody": 6146,
      "Ġworker": 6147,
      "Ġusually": 6148,
      "Ġgrowling": 6149,
      "Ġpencils": 6150,
      "Ġsighs": 6151,
      "Ġprunes": 6152,
      "Ġbumpy": 6153,
      "Ġlined": 6154,
      "Ġnect": 6155,
      "Ġsomebody": 6156,
      "Ġlap": 6157,
      "Ġforehead": 6158,
      "coat": 6159,
      "Ġtallest": 6160,
      "Ġbuying": 6161,
      "Ġknights": 6162,
      "Ġitchy": 6163,
      "Ġnectar": 6164,
      "elia": 6165,
      "Ġopening": 6166,
      "boat": 6167,
      "angled": 6168,
      "Ġpots": 6169,
      "Ġfuzzy": 6170,
      "Ġgroceries": 6171,
      "Rose": 6172,
      "Ġstem": 6173,
      "Ġcans": 6174,
      "ĠJenna": 6175,
      "Ġweeping": 6176,
      "Ġbeads": 6177,
      "lings": 6178,
      "rious": 6179,
      "Ġflames": 6180,
      "Ġprincesses": 6181,
      "Ġmisses": 6182,
      "ĠBeing": 6183,
      "Ġflags": 6184,
      "Ġcracked": 6185,
      "Ġwires": 6186,
      "Ġsneaky": 6187,
      "Ġfamilies": 6188,
      "rops": 6189,
      "ĠMany": 6190,
      "aren": 6191,
      "ĠLarry": 6192,
      "Ġraind": 6193,
      "Ġraincoat": 6194,
      "Ġcovers": 6195,
      "Ġawake": 6196,
      "oh": 6197,
      "Ġty": 6198,
      "Ġcott": 6199,
      "Ġden": 6200,
      "Ġrisk": 6201,
      "Ġrumble": 6202,
      "ĠEls": 6203,
      "Ġpretends": 6204,
      "Ġyesterday": 6205,
      "Ġcelebration": 6206,
      "Ġimproved": 6207,
      "Uh": 6208,
      "Ġpause": 6209,
      "armer": 6210,
      "ana": 6211,
      "Ġripe": 6212,
      "ĠBoth": 6213,
      "Ġmane": 6214,
      "ĠLinda": 6215,
      "ĠThomas": 6216,
      "Ġteaches": 6217,
      "abel": 6218,
      "Ġbaker": 6219,
      "Unfortunately": 6220,
      "Sandy": 6221,
      "Ġdipped": 6222,
      "Ġopp": 6223,
      "Ġglee": 6224,
      "Ġstern": 6225,
      "ĠMilo": 6226,
      "oys": 6227,
      "Ġwrist": 6228,
      "Ġpacking": 6229,
      "hog": 6230,
      "Ġmiles": 6231,
      "Ġleading": 6232,
      "Ġmelting": 6233,
      "Ġmagnets": 6234,
      "ÅĵWhatÃ¢": 6235,
      "Ġtasks": 6236,
      "Ġprovided": 6237,
      "Ġtwinkle": 6238,
      "Ġbalanced": 6239,
      "Ġcashier": 6240,
      "Ġhi": 6241,
      "reat": 6242,
      "Ġbelly": 6243,
      "opsy": 6244,
      "bbly": 6245,
      "Ġsnuck": 6246,
      "brush": 6247,
      "Ġphotos": 6248,
      "Ġunpacked": 6249,
      "Ġaff": 6250,
      "Ġwasted": 6251,
      "ppers": 6252,
      "ĠLuckily": 6253,
      "Ġsnat": 6254,
      "Ġunf": 6255,
      "Ġreplaced": 6256,
      "Ġworkers": 6257,
      "Ġdef": 6258,
      "Ġreads": 6259,
      "ĠEmmy": 6260,
      "Ġnaps": 6261,
      "Ġrockets": 6262,
      "Ġraindrops": 6263,
      "Ġlung": 6264,
      "ena": 6265,
      "ĠBird": 6266,
      "ĠLizzie": 6267,
      "Ġstaying": 6268,
      "Ġsmiley": 6269,
      "Ġuses": 6270,
      "Ġwinked": 6271,
      "Ġprotecting": 6272,
      "Ġreply": 6273,
      "ĠJessie": 6274,
      "ĠRabbit": 6275,
      "ĠY": 6276,
      "hee": 6277,
      "Ġwow": 6278,
      "Ġpiggy": 6279,
      "arling": 6280,
      "Ġmarked": 6281,
      "Ġactions": 6282,
      "Ġdetermination": 6283,
      "Ġbeginning": 6284,
      "Ġaccomplish": 6285,
      "Ġcautiously": 6286,
      "Ġbars": 6287,
      "Ġswirl": 6288,
      "Ġcolored": 6289,
      "Ġbedtime": 6290,
      "Ġradishes": 6291,
      "Charlie": 6292,
      "Ġagrees": 6293,
      "ĠBetty": 6294,
      "Ġrecommended": 6295,
      "eke": 6296,
      "Ġlower": 6297,
      "Ġhissed": 6298,
      "ĠPipp": 6299,
      "Ġfilling": 6300,
      "Ġsecure": 6301,
      "Ġtalented": 6302,
      "boo": 6303,
      "ĠHannah": 6304,
      "ĠMad": 6305,
      "ĠAunt": 6306,
      "Ġtwin": 6307,
      "ĠPut": 6308,
      "Ġexplorers": 6309,
      "Ġspeaking": 6310,
      "Ġpaddle": 6311,
      "Ġtemper": 6312,
      "ĠJessica": 6313,
      "wk": 6314,
      "Ġtodd": 6315,
      "Ġcough": 6316,
      "Ġseven": 6317,
      "Ġtreehouse": 6318,
      "Ġtricked": 6319,
      "Ġsplashes": 6320,
      "ĠLeave": 6321,
      "Ġglasses": 6322,
      "Ġrecording": 6323,
      "Ġdirections": 6324,
      "ossible": 6325,
      "vest": 6326,
      "ĠMon": 6327,
      "Ġchoo": 6328,
      "Ġimpossible": 6329,
      "Ġparties": 6330,
      "Ġdarker": 6331,
      "Ġattack": 6332,
      "Ġcelebrating": 6333,
      "Ġgiraff": 6334,
      "Ġhedgehog": 6335,
      "Ġseashell": 6336,
      "Ġcalmed": 6337,
      "Ġdrifted": 6338,
      "Ġtimer": 6339,
      "Ġchuckled": 6340,
      "Kate": 6341,
      "Ëľ": 6342,
      "ĠTess": 6343,
      "ido": 6344,
      "Ġhawk": 6345,
      "ĠSqu": 6346,
      "?\",": 6347,
      "ĠWater": 6348,
      "âĤ¬Ëľ": 6349,
      "Ġdancers": 6350,
      "ĠPrin": 6351,
      "ĠGigi": 6352,
      "Ġsailboat": 6353,
      "Ġgems": 6354,
      "Ġflavor": 6355,
      "Ġgiraffes": 6356,
      "Days": 6357,
      "ĠJay": 6358,
      "Ġfever": 6359,
      "Ġdiving": 6360,
      "Ġhallway": 6361,
      "ĠSparky": 6362,
      "cited": 6363,
      "Ġlogs": 6364,
      "Ġbacked": 6365,
      "Ġdeal": 6366,
      "Ġsteer": 6367,
      "Ġpleasure": 6368,
      "ophia": 6369,
      "Ġscrubbed": 6370,
      "Polly": 6371,
      "yond": 6372,
      "isies": 6373,
      "ids": 6374,
      "Ġinsp": 6375,
      "Ġbeyond": 6376,
      "rip": 6377,
      "Ġyounger": 6378,
      "ĠBo": 6379,
      "urry": 6380,
      "Ġrobb": 6381,
      "Ġconn": 6382,
      "Ġfairies": 6383,
      "ĠwouldnÃ¢": 6384,
      "ĠOw": 6385,
      "Ġfolding": 6386,
      "Ġpaying": 6387,
      "Ġtricky": 6388,
      "Ġartist": 6389,
      "Ġbakery": 6390,
      "Ġmaterials": 6391,
      "Ġpouted": 6392,
      "no": 6393,
      "Ġsense": 6394,
      "ĠHappy": 6395,
      "ĠMel": 6396,
      "ĠAbbie": 6397,
      "Ġchip": 6398,
      "Ġslices": 6399,
      "ths": 6400,
      "ĠRobby": 6401,
      "Ġrivers": 6402,
      "Ġbowls": 6403,
      "Ġhoriz": 6404,
      "Ġbumps": 6405,
      "Ġlollipops": 6406,
      "Ġobjects": 6407,
      "Ġcheeks": 6408,
      "Ġdaisies": 6409,
      "Ġtipt": 6410,
      "Ġtemperature": 6411,
      "bell": 6412,
      "Ġlun": 6413,
      "aty": 6414,
      "Ġknees": 6415,
      "Ġsquish": 6416,
      "Ġrubs": 6417,
      "Ġsquares": 6418,
      "Ġsnatched": 6419,
      "Ġhorizon": 6420,
      "ners": 6421,
      "arter": 6422,
      "ĠMo": 6423,
      "Ġsmarter": 6424,
      "Ġyourselves": 6425,
      "Ġcoloring": 6426,
      "Ġlistens": 6427,
      "itches": 6428,
      "Ġfroze": 6429,
      "Ġcreamy": 6430,
      "ĠJulia": 6431,
      "Ġfluttered": 6432,
      "Ġachieved": 6433,
      "ĠMaya": 6434,
      "Ġrusty": 6435,
      "Bl": 6436,
      "Fine": 6437,
      "Some": 6438,
      "ippy": 6439,
      "oey": 6440,
      "the": 6441,
      "tle": 6442,
      "Ġscaring": 6443,
      "Ġtractor": 6444,
      "Ġbehavi": 6445,
      "Ġdreamt": 6446,
      "Ġmuscle": 6447,
      "cope": 6448,
      "uzzy": 6449,
      "Ġsib": 6450,
      "Ġdarling": 6451,
      "Ġmi": 6452,
      "Ġsobbed": 6453,
      "Ġchop": 6454,
      "ĠFriend": 6455,
      "Ġcupcakes": 6456,
      "Ġembarrass": 6457,
      "Ġrefle": 6458,
      "Ġpedals": 6459,
      "Ġdiscussed": 6460,
      "Ġinstrum": 6461,
      "zes": 6462,
      "Ġhearing": 6463,
      "Ġlosing": 6464,
      "ĠEnjoy": 6465,
      "Ġgrassy": 6466,
      "Ġhealth": 6467,
      "Ġscarves": 6468,
      "Ġblows": 6469,
      "Ġcandies": 6470,
      "Ġarrows": 6471,
      "Ġdelivered": 6472,
      "Ġmasks": 6473,
      "ĠKeep": 6474,
      "ĠPrincess": 6475,
      "For": 6476,
      "Katie": 6477,
      "oni": 6478,
      "Ġweeke": 6479,
      "Ġaren": 6480,
      "Ġjoking": 6481,
      "ĠChe": 6482,
      "Ġfluttering": 6483,
      "Ġmixture": 6484,
      "Ġweekend": 6485,
      "fl": 6486,
      "urious": 6487,
      "Ġhitting": 6488,
      "Ġwadd": 6489,
      "Ġmes": 6490,
      "ility": 6491,
      "ĠSorry": 6492,
      "Ġrip": 6493,
      "ĠAbby": 6494,
      "ĠDolly": 6495,
      "Ġstays": 6496,
      "ĠPo": 6497,
      "Ġcloses": 6498,
      "Ġafterwards": 6499,
      "ĠAsh": 6500,
      "ĠTodd": 6501,
      "Ġindeed": 6502,
      "Ġrewarded": 6503,
      "Ġseparated": 6504,
      "Ġwidened": 6505,
      "Ġtravelled": 6506,
      "Ġmesmer": 6507,
      "Fin": 6508,
      "Ġdots": 6509,
      "Ġthird": 6510,
      "Ġnoon": 6511,
      "icked": 6512,
      "Ġmeals": 6513,
      "Ġhandful": 6514,
      "ĠPl": 6515,
      "ĠGet": 6516,
      "Ġsigned": 6517,
      "Ġwipes": 6518,
      "Ġhesitated": 6519,
      "ĠNothing": 6520,
      "Ġbehaved": 6521,
      "itched": 6522,
      "Ġcous": 6523,
      "iled": 6524,
      "Ġgobbled": 6525,
      "Ġroses": 6526,
      "ĠFarmer": 6527,
      "ÅĵDo": 6528,
      "ĠNick": 6529,
      "Ġpotion": 6530,
      "Ġneighbours": 6531,
      "Ġcowb": 6532,
      "Ġsalty": 6533,
      "Ġscrews": 6534,
      "Ġminerals": 6535,
      "Ġperforman": 6536,
      "May": 6537,
      "band": 6538,
      "rig": 6539,
      "ĠĠĊ": 6540,
      "eds": 6541,
      "ĠHoot": 6542,
      "igers": 6543,
      "ntil": 6544,
      "Ġwears": 6545,
      "Ġrefu": 6546,
      "Ġflapping": 6547,
      "using": 6548,
      "ĠEverybody": 6549,
      "aker": 6550,
      "Ġyells": 6551,
      "ments": 6552,
      "Ġkicks": 6553,
      "Ġshrinking": 6554,
      "Toby": 6555,
      "Ġvideos": 6556,
      "Ġforgiven": 6557,
      "Danny": 6558,
      "Time": 6559,
      "Ġaud": 6560,
      "ĠTara": 6561,
      "Ġonions": 6562,
      "Ġshirts": 6563,
      "ĠJazz": 6564,
      "Ġexperien": 6565,
      "Ġburst": 6566,
      "Ġornaments": 6567,
      "An": 6568,
      "Ġrising": 6569,
      "Ġbeam": 6570,
      "itted": 6571,
      "sequ": 6572,
      "ickey": 6573,
      "iece": 6574,
      "Ġslam": 6575,
      "Ġdrawn": 6576,
      "Ġamong": 6577,
      "Ġlighter": 6578,
      "Ġrequested": 6579,
      "ĠAmelia": 6580,
      "?'": 6581,
      "Ellie": 6582,
      "Milly": 6583,
      "Ġtangled": 6584,
      "Ġcoup": 6585,
      "ades": 6586,
      "Ġfact": 6587,
      "ept": 6588,
      "Ġbadge": 6589,
      "Ġconsequ": 6590,
      "Ġbeloved": 6591,
      "ĠKayla": 6592,
      "Ġknocks": 6593,
      "ded": 6594,
      "Ġcust": 6595,
      "Ġech": 6596,
      "ĠEl": 6597,
      "Ġswept": 6598,
      "Ġneedles": 6599,
      "ÅĵWow": 6600,
      "ĠPam": 6601,
      "umbling": 6602,
      "Bobo": 6603,
      "Ġclowns": 6604,
      "Ġgracefully": 6605,
      "Ġsnowballs": 6606,
      "eal": 6607,
      "jo": 6608,
      "ouch": 6609,
      "Ġkites": 6610,
      "ĠJacob": 6611,
      "Ġnoses": 6612,
      "Ġgrandp": 6613,
      "Ġwilling": 6614,
      "ĠJacky": 6615,
      "Ġblocking": 6616,
      "Ġprinting": 6617,
      "ĠDoggy": 6618,
      "Ġpointy": 6619,
      "Ġpassen": 6620,
      "Ġtunnels": 6621,
      "Ġcopy": 6622,
      "Ġcomplaining": 6623,
      "Ġcouple": 6624,
      "Ġcustom": 6625,
      "Ducky": 6626,
      "Run": 6627,
      "Ġdet": 6628,
      "atul": 6629,
      "igning": 6630,
      "ĠWatch": 6631,
      "ĠLi": 6632,
      "ĠPinky": 6633,
      "ronaut": 6634,
      "Ġstomped": 6635,
      "Ġincluding": 6636,
      "Ġastronaut": 6637,
      "iki": 6638,
      "Ġsiblings": 6639,
      "Ġperformance": 6640,
      "Ġconsequences": 6641,
      "Ġteased": 6642,
      "Ġpans": 6643,
      "Ġjackets": 6644,
      "Ġannoy": 6645,
      "Ġcenter": 6646,
      "Ġafford": 6647,
      "Ġgrandpare": 6648,
      "Ġcor": 6649,
      "ans": 6650,
      "llen": 6651,
      "Ġarr": 6652,
      "Ġhandsome": 6653,
      "Ġchoices": 6654,
      "Ġforgetting": 6655,
      "Ġdrums": 6656,
      "Ġpoems": 6657,
      "Ġstroked": 6658,
      "Ġtiptoed": 6659,
      "Ġaudience": 6660,
      "Dan": 6661,
      "Wh": 6662,
      "aa": 6663,
      "ky": 6664,
      "atur": 6665,
      "obody": 6666,
      "ĠPandy": 6667,
      "ĠwonÃ¢": 6668,
      "Ġplans": 6669,
      "ĠFlopsy": 6670,
      "Ġsource": 6671,
      "Ġscratches": 6672,
      "Ġsurroundings": 6673,
      "rigued": 6674,
      "Ew": 6675,
      "Tina": 6676,
      "aired": 6677,
      "tuce": 6678,
      "Ġhus": 6679,
      "Ġhour": 6680,
      "Ġmast": 6681,
      "ados": 6682,
      "Ġcond": 6683,
      "ĠFido": 6684,
      "Ġpeppers": 6685,
      "Those": 6686,
      "Ġlettuce": 6687,
      "Ġcreations": 6688,
      "Ġrule": 6689,
      "Ġpeacefully": 6690,
      "Ġspoonful": 6691,
      "Ġwrapping": 6692,
      "Ġrepaired": 6693,
      "Ġwraps": 6694,
      "Ġavocados": 6695,
      "Ġgranted": 6696,
      "immering": 6697,
      "come": 6698,
      "mallow": 6699,
      "Ġtigers": 6700,
      "Ġlimes": 6701,
      "Ġropes": 6702,
      "Ġplayers": 6703,
      "Ġhelpers": 6704,
      "retty": 6705,
      "iley": 6706,
      "Ġbully": 6707,
      "Ġadult": 6708,
      "Ġwindy": 6709,
      "Ġzipping": 6710,
      "Ġbows": 6711,
      "Ġsnowmen": 6712,
      "Ġstarfish": 6713,
      "ĠOwl": 6714,
      "ivity": 6715,
      "Ġforks": 6716,
      "Ġavoid": 6717,
      "Ġhelmets": 6718,
      "arshmallow": 6719,
      "Ġtempt": 6720,
      "ĠRover": 6721,
      "Ġsports": 6722,
      "Ġwarnings": 6723,
      "Ġswimsuit": 6724,
      "Ġlungs": 6725,
      "Ġreass": 6726,
      "ĠMa": 6727,
      "Ġtramp": 6728,
      "ÅĵCome": 6729,
      "Ġremote": 6730,
      "Ġconcer": 6731,
      "Ġuns": 6732,
      "Ġheading": 6733,
      "Ġplanning": 6734,
      "Ġwishing": 6735,
      "Ġleaning": 6736,
      "Ġseconds": 6737,
      "Ġsprinkled": 6738,
      "Ġhesitant": 6739,
      "Shh": 6740,
      "Ġtoddler": 6741,
      "By": 6742,
      "Ġrings": 6743,
      "ĠBessie": 6744,
      "ĠJune": 6745,
      "Ġfears": 6746,
      "Ġhider": 6747,
      "Ġsilent": 6748,
      "Ġcomplained": 6749,
      "ĠFox": 6750,
      "ĠGoodbye": 6751,
      "ccoon": 6752,
      "Ġgreeted": 6753,
      "Ġdeserve": 6754,
      "Ġheavier": 6755,
      "Bad": 6756,
      "arrow": 6757,
      "river": 6758,
      "step": 6759,
      "Ġflas": 6760,
      "Ġgrabbing": 6761,
      "Ġtwice": 6762,
      "Ġraccoon": 6763,
      "Ġwarri": 6764,
      "ĠRemember": 6765,
      "Ġcreativity": 6766,
      "ĠWithout": 6767,
      "Ġspreading": 6768,
      "Ġborrowed": 6769,
      "Ġpumpkins": 6770,
      "Ġdesigned": 6771,
      "ĠOlive": 6772,
      "Maria": 6773,
      "ĠQuack": 6774,
      "Ġhusband": 6775,
      "Ġtrampoline": 6776,
      "Pat": 6777,
      "cl": 6778,
      "fall": 6779,
      "Ġmerry": 6780,
      "ĠSun": 6781,
      "esp": 6782,
      "Ġrus": 6783,
      "Ġskunk": 6784,
      "ÅĵHi": 6785,
      "ĠZoey": 6786,
      "Ġcuddly": 6787,
      "Ġinsects": 6788,
      "Ġfirefighter": 6789,
      "ĠTwo": 6790,
      "Great": 6791,
      "yes": 6792,
      "ĠQ": 6793,
      "Ġwins": 6794,
      "Ġbodies": 6795,
      "Ġspong": 6796,
      "Ġnapkins": 6797,
      "Ġimagining": 6798,
      "ĠZip": 6799,
      "Ġseeker": 6800,
      "ĠBluey": 6801,
      "Ġresisted": 6802,
      "ĠMouse": 6803,
      "Ġbackwards": 6804,
      "ongr": 6805,
      "Ġdollhouse": 6806,
      "Ġruining": 6807,
      "Ġslower": 6808,
      "anging": 6809,
      "Ġrecipe": 6810,
      "Ġgenie": 6811,
      "Ġdecorating": 6812,
      "Ġneatly": 6813,
      "ĠRobert": 6814,
      "Ġpuppies": 6815,
      "Ġdamage": 6816,
      "ĠSquirrel": 6817,
      "Nina": 6818,
      "weed": 6819,
      "Ġmer": 6820,
      "inger": 6821,
      "Ġnood": 6822,
      "ĠBinky": 6823,
      "ĠJudy": 6824,
      "Ġfeast": 6825,
      "Ġpeck": 6826,
      "Ġcrew": 6827,
      "ĠGreen": 6828,
      "ĠNina": 6829,
      "Ġsailors": 6830,
      "Ġtails": 6831,
      "Ġacting": 6832,
      "Ġaccomplishment": 6833,
      "Ġsquishy": 6834,
      "ongratul": 6835,
      "Nemo": 6836,
      "tier": 6837,
      "Ġgross": 6838,
      "anes": 6839,
      "ĠListen": 6840,
      "Ġprettier": 6841,
      "Ġsnowfl": 6842,
      "ĠZero": 6843,
      "Ġpraying": 6844,
      "Ġdelivering": 6845,
      "ÅĵYouÃ¢": 6846,
      "ĠFrog": 6847,
      "Ġfamiliar": 6848,
      "Clara": 6849,
      "Whee": 6850,
      "ael": 6851,
      "Ġtouc": 6852,
      "Ġsale": 6853,
      "Ġplucked": 6854,
      "Ġscamp": 6855,
      "ongo": 6856,
      "Ġworn": 6857,
      "plash": 6858,
      "ueen": 6859,
      "Ġwobbled": 6860,
      "Ġpromises": 6861,
      "ichael": 6862,
      "Ġexpress": 6863,
      "Ġbasement": 6864,
      "Ġwiggle": 6865,
      "Roar": 6866,
      "Ġsnuggle": 6867,
      "Ġsponge": 6868,
      "eese": 6869,
      "itude": 6870,
      "ĠTuna": 6871,
      "Ġsofter": 6872,
      "Ġspices": 6873,
      "ĠAng": 6874,
      "Ġcoc": 6875,
      "Ġpecked": 6876,
      "Ġthroughout": 6877,
      "Ġdropping": 6878,
      "Ġjoyful": 6879,
      "Meow": 6880,
      "Ġbreathed": 6881,
      "Tweety": 6882,
      "Ġguests": 6883,
      "Have": 6884,
      "iel": 6885,
      "Ġsan": 6886,
      "Ġwept": 6887,
      "choo": 6888,
      "child": 6889,
      "Ġneither": 6890,
      "ĠMira": 6891,
      "Ġalien": 6892,
      "Ġage": 6893,
      "ÅĵMy": 6894,
      "Ġconvers": 6895,
      "Ġseaweed": 6896,
      "Ġvanilla": 6897,
      "ĠUntil": 6898,
      "Ġgrandchild": 6899,
      "Ġenthusi": 6900,
      "Ġbuzzed": 6901,
      "ĠRobbie": 6902,
      "Ġconfl": 6903,
      "Ġincreased": 6904,
      "ably": 6905,
      "ĠQueen": 6906,
      "Baby": 6907,
      "lves": 6908,
      "erate": 6909,
      "Ġocc": 6910,
      "Ġrout": 6911,
      "ĠMickey": 6912,
      "Ġblast": 6913,
      "arac": 6914,
      "Ġdollars": 6915,
      "Ġthrown": 6916,
      "uggles": 6917,
      "ĠThanks": 6918,
      "Ġgasp": 6919,
      "Ġpostman": 6920,
      "Ġsurrendered": 6921,
      "Ġyielded": 6922,
      "Ġenthusiasm": 6923,
      "Br": 6924,
      "Tw": 6925,
      "iment": 6926,
      "Ġstain": 6927,
      "Ġstung": 6928,
      "Ġchos": 6929,
      "Ġexplo": 6930,
      "Ġhops": 6931,
      "Ġgrowls": 6932,
      "Ġignoring": 6933,
      "ĠSnuggles": 6934,
      "Ġmushrooms": 6935,
      "Ġcubes": 6936,
      "Ġrustling": 6937,
      "Ġfocused": 6938,
      "Ġchosen": 6939,
      "Boo": 6940,
      "Ġmarshmallow": 6941,
      "Ġgeese": 6942,
      "ĠSophia": 6943,
      "Ġthorn": 6944,
      "Ġstool": 6945,
      "Ġneare": 6946,
      "Ġleast": 6947,
      "Ġflight": 6948,
      "ĠEx": 6949,
      "Ġintrigued": 6950,
      "aura": 6951,
      "Ġexplorer": 6952,
      "Ġache": 6953,
      "athan": 6954,
      "Ġamount": 6955,
      "Ġshops": 6956,
      "Ġhopeful": 6957,
      "Ġmatters": 6958,
      "Ġhonked": 6959,
      "Ġpaths": 6960,
      "ertain": 6961,
      "Ġtoaster": 6962,
      "years": 6963,
      "Ġscraped": 6964,
      "Ġpassengers": 6965,
      "Fo": 6966,
      "Pe": 6967,
      "Surpr": 6968,
      "abby": 6969,
      "yan": 6970,
      "Ġplain": 6971,
      "allowed": 6972,
      "Ġswallowed": 6973,
      "Ġsmallest": 6974,
      "ĠRalph": 6975,
      "Ġcuriously": 6976,
      "Ġsails": 6977,
      "Ġrespond": 6978,
      "Ġlifting": 6979,
      "Ġbatteries": 6980,
      "Ġappreciation": 6981,
      "Ġwaddled": 6982,
      "Ruby": 6983,
      "while": 6984,
      "Ġais": 6985,
      "Ġdie": 6986,
      "ĠSque": 6987,
      "Ġspins": 6988,
      "Ġcharac": 6989,
      "Ġpuff": 6990,
      "ĠThose": 6991,
      "Ġdrawers": 6992,
      "Ġtalks": 6993,
      "Ġshaped": 6994,
      "Ġhealing": 6995,
      "Ġrespected": 6996,
      "Ġtested": 6997,
      "Ġsunflowers": 6998,
      "Ġencourag": 6999,
      "Ġtriangles": 7000,
      "Ġtrembled": 7001,
      "Ġwider": 7002,
      "Ġchefs": 7003,
      "ĠFriends": 7004,
      "Ġcousin": 7005,
      "Ġscampered": 7006,
      "Ġsank": 7007,
      "Ġcharacter": 7008,
      "Kim": 7009,
      "Yummy": 7010,
      "rey": 7011,
      "ition": 7012,
      "Ġnibb": 7013,
      "Ġkittens": 7014,
      "Ġglued": 7015,
      "Ġremembering": 7016,
      "Ġhides": 7017,
      "Ġstreets": 7018,
      "ĠOur": 7019,
      "ĠStella": 7020,
      "Ġcushions": 7021,
      "Ġsymbols": 7022,
      "Ġbehaving": 7023,
      "Blue": 7024,
      "Ġrushing": 7025,
      "cake": 7026,
      "unched": 7027,
      "ĠJax": 7028,
      "Ġscient": 7029,
      "Ġdads": 7030,
      "Ġtrot": 7031,
      "Ġgardener": 7032,
      "ÅĵNow": 7033,
      "Ġdances": 7034,
      "Ġwrink": 7035,
      "ĠRock": 7036,
      "Ġcausing": 7037,
      "ĠStan": 7038,
      "Ġfeeding": 7039,
      "Ġstudents": 7040,
      "Ġscrewd": 7041,
      "Ġproper": 7042,
      "Ġunsure": 7043,
      "Ġtouches": 7044,
      "Ġscientist": 7045,
      "Jul": 7046,
      "Lilly": 7047,
      "Tr": 7048,
      "ĊĊ": 7049,
      "Ġdod": 7050,
      "Ġscored": 7051,
      "Ġflown": 7052,
      "Ġdresser": 7053,
      "Ġcrashing": 7054,
      "Ġedges": 7055,
      "Quick": 7056,
      "ĠBirthday": 7057,
      "Ġfreedom": 7058,
      "--": 7059,
      "Back": 7060,
      "Even": 7061,
      "fire": 7062,
      "Ġdaring": 7063,
      "Ġnine": 7064,
      "Ġnotes": 7065,
      "Ġreason": 7066,
      "Ġmanag": 7067,
      "Ġposs": 7068,
      "emma": 7069,
      "ĠJoan": 7070,
      "Ġprove": 7071,
      "Ġcorners": 7072,
      "Ġwiping": 7073,
      "Ġtwisty": 7074,
      "Ġthud": 7075,
      "Ġrefreshing": 7076,
      "Ġfirmly": 7077,
      "Ġdefin": 7078,
      "Ġnoodles": 7079,
      "Ġscrewdriver": 7080,
      "During": 7081,
      "Sadly": 7082,
      "Ġtuck": 7083,
      "Ġsy": 7084,
      "Ġmunch": 7085,
      "Ġoh": 7086,
      "stick": 7087,
      "endy": 7088,
      "aula": 7089,
      "Ġadults": 7090,
      "Ġfinal": 7091,
      "Ġfinishing": 7092,
      "acles": 7093,
      "Ġnearly": 7094,
      "Ġstrongest": 7095,
      "ĠNobody": 7096,
      "Ġdived": 7097,
      "Ġcrossing": 7098,
      "Ġheroes": 7099,
      "Ġswans": 7100,
      "Ġperforming": 7101,
      "Ġsurfing": 7102,
      "Ġzebras": 7103,
      "Ġsuperheroes": 7104,
      "Ġmarshmallows": 7105,
      "Jerry": 7106,
      "Ġcoral": 7107,
      "Ġmoo": 7108,
      "Ġsadd": 7109,
      "Ġonward": 7110,
      "ĠBongo": 7111,
      "Ġspikes": 7112,
      "Ġswords": 7113,
      "Ġposter": 7114,
      "ĠCra": 7115,
      "Ġwobbly": 7116,
      "Ġdefe": 7117,
      "Ġchopped": 7118,
      "Ġjoining": 7119,
      "Ġforgets": 7120,
      "Ġexamining": 7121,
      "Ġsuggestion": 7122,
      "Ġsneezing": 7123,
      "Ġsurfboard": 7124,
      "Ġsuffered": 7125,
      "Su": 7126,
      "Woof": 7127,
      "eel": 7128,
      "fia": 7129,
      "Ġaimed": 7130,
      "Ġfaded": 7131,
      "Ġmaster": 7132,
      "Ġpens": 7133,
      "aying": 7134,
      "Ġgest": 7135,
      "Ġreun": 7136,
      "Ġroars": 7137,
      "Ġcosy": 7138,
      "ÅĵWell": 7139,
      "ĠJaney": 7140,
      "Ġmagician": 7141,
      "Ġsteady": 7142,
      "Ġtables": 7143,
      "Steve": 7144,
      "Ġbells": 7145,
      "Ġcoop": 7146,
      "Ġfishes": 7147,
      "Ġpresses": 7148,
      "Ġsqueak": 7149,
      "Ġfirefly": 7150,
      "Ġperformed": 7151,
      "ĠLouise": 7152,
      "Ġreflection": 7153,
      "Ġdefinitely": 7154,
      "Ġwag": 7155,
      "ĠTake": 7156,
      "ĠSc": 7157,
      "imon": 7158,
      "cky": 7159,
      "sty": 7160,
      "Ġplaytime": 7161,
      "idey": 7162,
      "ĠWally": 7163,
      "Ġsled": 7164,
      "Ġraces": 7165,
      "Ġsending": 7166,
      "Ġmesmerized": 7167,
      "Ġencouraging": 7168,
      "Miss": 7169,
      "Oops": 7170,
      "hew": 7171,
      "Ġcertain": 7172,
      "Ġdip": 7173,
      "Ġgears": 7174,
      "ening": 7175,
      "anwhile": 7176,
      "lle": 7177,
      "Ġinj": 7178,
      "Ġshown": 7179,
      "Ġscen": 7180,
      "ĠElly": 7181,
      "Ġbravest": 7182,
      "Whenever": 7183,
      "Ġcolder": 7184,
      "ounce": 7185,
      "attered": 7186,
      "Ġloading": 7187,
      "Ġburying": 7188,
      "ĠBirdy": 7189,
      "Ġslammed": 7190,
      "Ġechoed": 7191,
      "Ġwarrior": 7192,
      "espite": 7193,
      "Ġfant": 7194,
      "Ġhen": 7195,
      "onse": 7196,
      "onna": 7197,
      "Ġease": 7198,
      "Ġund": 7199,
      "Ġplayroom": 7200,
      "ugs": 7201,
      "Ġcharge": 7202,
      "roken": 7203,
      "ĠFuzzy": 7204,
      "Ġslips": 7205,
      "otten": 7206,
      "Ġfits": 7207,
      "Ġresponse": 7208,
      "ĠStay": 7209,
      "Ġnecklaces": 7210,
      "Ġdesigns": 7211,
      "Ġpreparing": 7212,
      "Ġhumans": 7213,
      "Ġefforts": 7214,
      "Ġpupils": 7215,
      "Ġtravelling": 7216,
      "Frank": 7217,
      "Ġoccas": 7218,
      "Ġfantastic": 7219,
      "Like": 7220,
      "Ġtossed": 7221,
      "Ġgonna": 7222,
      "elvet": 7223,
      "Ġbraver": 7224,
      "Ġmonths": 7225,
      "Ġlessons": 7226,
      "ĠKelly": 7227,
      "Ġbaths": 7228,
      "Ġstands": 7229,
      "Ġbaskets": 7230,
      "Ġlifts": 7231,
      "Ġpuzzled": 7232,
      "ĠAlthough": 7233,
      "Ġpays": 7234,
      "Ġawo": 7235,
      "Ġsuits": 7236,
      "Ġgrandd": 7237,
      "Ġstacked": 7238,
      "Ġresults": 7239,
      "Ġpunishment": 7240,
      "Ġleapt": 7241,
      "ĠAshley": 7242,
      "Ġgrandparents": 7243,
      "Ġmate": 7244,
      "Ġpours": 7245,
      "Ġnapping": 7246,
      "Ġnuzz": 7247,
      "onies": 7248,
      "lets": 7249,
      "Ġev": 7250,
      "Ġearn": 7251,
      "Ġrotten": 7252,
      "rian": 7253,
      "chy": 7254,
      "Ġaside": 7255,
      "ĠWell": 7256,
      "Ġchanging": 7257,
      "Ġrainy": 7258,
      "Ġduckling": 7259,
      "ĠThatÃ¢": 7260,
      "Ġantic": 7261,
      "ĠUnder": 7262,
      "Ġlending": 7263,
      "Ġlicking": 7264,
      "ĠQuick": 7265,
      "Car": 7266,
      "Very": 7267,
      "found": 7268,
      "Ġstitches": 7269,
      "Ġbelts": 7270,
      "Ġtablet": 7271,
      "Ġdrivers": 7272,
      "Ġaction": 7273,
      "Ġnervously": 7274,
      "Ġfrowning": 7275,
      "Ġstreamers": 7276,
      "Ġcampfire": 7277,
      "Ġtwinkled": 7278,
      "Ġsewed": 7279,
      "Ġdespite": 7280,
      "Ġ10": 7281,
      "Ġrobber": 7282,
      "Ġconnected": 7283,
      "Ġarranged": 7284,
      "Ġconflict": 7285,
      "Rachel": 7286,
      "mates": 7287,
      "ĠX": 7288,
      "rect": 7289,
      "Ġponies": 7290,
      "ĠSw": 7291,
      "Ġelf": 7292,
      "unity": 7293,
      "ĠMabel": 7294,
      "fus": 7295,
      "nap": 7296,
      "Ġtapped": 7297,
      "Ġwaterfall": 7298,
      "Ġwobble": 7299,
      "Ġwrigg": 7300,
      "Ġpolar": 7301,
      "meal": 7302,
      "Ġpennies": 7303,
      "Ġtidied": 7304,
      "Ġpanicked": 7305,
      "Ġwhispers": 7306,
      "ĠUp": 7307,
      "ĠFinn": 7308,
      "Ġoatmeal": 7309,
      "Ġcorrect": 7310,
      "Tony": 7311,
      "now": 7312,
      "Ġ2": 7313,
      "Ġcongratul": 7314,
      "ĠHolly": 7315,
      "utter": 7316,
      "adie": 7317,
      "ĠSpidey": 7318,
      "Ġwarmer": 7319,
      "Ġblocked": 7320,
      "Ġpolitely": 7321,
      "Ġmailed": 7322,
      "Ġbattle": 7323,
      "ĠStitch": 7324,
      "Ġappreciated": 7325,
      "Ġwhispering": 7326,
      "Ġflavors": 7327,
      "Ġbehavior": 7328,
      "Ġreunited": 7329,
      "Bill": 7330,
      "bage": 7331,
      "bird": 7332,
      "Ġwoof": 7333,
      "innie": 7334,
      "Ġnewfound": 7335,
      "Ġwhose": 7336,
      "ĠDr": 7337,
      "Ġovercome": 7338,
      "Ġsurprising": 7339,
      "Ġtoward": 7340,
      "Ġforests": 7341,
      "Ġcollap": 7342,
      "Ġgarbage": 7343,
      "Ġleads": 7344,
      "Ġotters": 7345,
      "Ġreversed": 7346,
      "rrr": 7347,
      "ĠGranny": 7348,
      "Ġmasterp": 7349,
      "Jamie": 7350,
      "Since": 7351,
      "broken": 7352,
      "eedy": 7353,
      "munk": 7354,
      "sers": 7355,
      "Ġtying": 7356,
      "erm": 7357,
      "Ġnur": 7358,
      "ooking": 7359,
      "ighing": 7360,
      "ĠBee": 7361,
      "Ġbru": 7362,
      "Ġprob": 7363,
      "ection": 7364,
      "Ġcleaner": 7365,
      "ĠPr": 7366,
      "Ġdisob": 7367,
      "Ġsweetest": 7368,
      "Ġcalmly": 7369,
      "Ġdriveway": 7370,
      "Ġmaterial": 7371,
      "Ġcottage": 7372,
      "Ġevil": 7373,
      "Ġprobably": 7374,
      "Our": 7375,
      "Ġsou": 7376,
      "Ġwakes": 7377,
      "Ġpins": 7378,
      "ĠSmo": 7379,
      "ppies": 7380,
      "ĠthatÃ¢": 7381,
      "ĠLove": 7382,
      "Ġsnort": 7383,
      "Ġteles": 7384,
      "ÅĵOf": 7385,
      "Ġstopping": 7386,
      "Ġrains": 7387,
      "Ġbits": 7388,
      "ĠKaren": 7389,
      "Ġdistract": 7390,
      "ounced": 7391,
      "Ġpops": 7392,
      "Ġlaying": 7393,
      "Ġluckily": 7394,
      "Ġscurry": 7395,
      "ĠElsa": 7396,
      "ĠPippin": 7397,
      "Ġmerma": 7398,
      "Follow": 7399,
      "ĠSqueaky": 7400,
      "Ġawoke": 7401,
      "Ġtelescope": 7402,
      "?!\"": 7403,
      "Ros": 7404,
      "crow": 7405,
      "whe": 7406,
      "Ġheight": 7407,
      "veral": 7408,
      "ading": 7409,
      "Ġseveral": 7410,
      "Ġspook": 7411,
      "ĠFire": 7412,
      "Ġwatering": 7413,
      "Ġoffic": 7414,
      "Ġbeautifully": 7415,
      "ÅĵThe": 7416,
      "ĠPet": 7417,
      "Ġbelieving": 7418,
      "Ġaddress": 7419,
      "Ġrisks": 7420,
      "Ġanticip": 7421,
      "Penny": 7422,
      "mered": 7423,
      "Ġtiss": 7424,
      "Ġlent": 7425,
      "Ġmaker": 7426,
      "ĠMichael": 7427,
      "Ġthoughts": 7428,
      "ÅĵMom": 7429,
      "Ġconqu": 7430,
      "Ġunderstands": 7431,
      "ĠKiki": 7432,
      "Ġsparks": 7433,
      "Ġcloudy": 7434,
      "Ġplanting": 7435,
      "ĠOnly": 7436,
      "Ġscram": 7437,
      "Ġseller": 7438,
      "ĠDavey": 7439,
      "Ġtravels": 7440,
      "Ġartwork": 7441,
      "Ġcobwebs": 7442,
      "ĠMeg": 7443,
      "Ġseashells": 7444,
      "Ġconversation": 7445,
      "Ġspooky": 7446,
      "cher": 7447,
      "upt": 7448,
      "wise": 7449,
      "worm": 7450,
      "Ġgap": 7451,
      "Ġsoaking": 7452,
      "ĠgirlÃ¢": 7453,
      "Ġcoach": 7454,
      "ĠLaura": 7455,
      "Ġposit": 7456,
      "Ġslither": 7457,
      "Ġuntie": 7458,
      "Ġtricycle": 7459,
      "Ġworrying": 7460,
      "Ġcraft": 7461,
      "Ġgrows": 7462,
      "Ġvegg": 7463,
      "Ġheartbroken": 7464,
      "Ġmints": 7465,
      "ĠAlong": 7466,
      "Ġtires": 7467,
      "Ġoysters": 7468,
      "azing": 7469,
      "Ġloops": 7470,
      "Ġinsisting": 7471,
      "Ġrotting": 7472,
      "Ġadmiration": 7473,
      "Ġbrushing": 7474,
      "Ġcongratulated": 7475,
      "Abigail": 7476,
      "Beth": 7477,
      "aven": 7478,
      "cent": 7479,
      "Ġtar": 7480,
      "Ġaim": 7481,
      "Ġsill": 7482,
      "ĠTry": 7483,
      "idence": 7484,
      "Ġni": 7485,
      "rier": 7486,
      "Ġshady": 7487,
      "Ġanger": 7488,
      "Ġpoppies": 7489,
      "bbling": 7490,
      "ĠJojo": 7491,
      "ÅĵOkay": 7492,
      "ÅĵWhere": 7493,
      "Ġbusiness": 7494,
      "Ġfills": 7495,
      "Ġtighter": 7496,
      "Ġsniffs": 7497,
      "Ġpermitted": 7498,
      "Ġpurr": 7499,
      "Ġdiscussing": 7500,
      "Ġresponsib": 7501,
      "Ġdamaged": 7502,
      "Ġforgiving": 7503,
      "Ġchipmunk": 7504,
      "Ġconduct": 7505,
      "Surprise": 7506,
      "Ġmasterpiece": 7507,
      "Ġanticipation": 7508,
      "Adam": 7509,
      "Mad": 7510,
      "isions": 7511,
      "anie": 7512,
      "Ġshoo": 7513,
      "Ġreapp": 7514,
      "Ġexcept": 7515,
      "Ġmemb": 7516,
      "âĤ¬,": 7517,
      "ĠLena": 7518,
      "Ġgoodby": 7519,
      "Ġdoorway": 7520,
      "ĠGary": 7521,
      "Ġbiting": 7522,
      "Ġbelongings": 7523,
      "Ġsurv": 7524,
      "Ġchocolates": 7525,
      "Ġapologised": 7526,
      "Ġdiamonds": 7527,
      "Ġrepeating": 7528,
      "Ġbreathing": 7529,
      "Ġtubes": 7530,
      "ĠVelvet": 7531,
      "Ġpuppet": 7532,
      "citedly": 7533,
      "ĠAngel": 7534,
      "Ġtrotted": 7535,
      "eeling": 7536,
      "Ġveggies": 7537,
      "Ġmembers": 7538,
      "bi": 7539,
      "sm": 7540,
      "Ġmood": 7541,
      "ammy": 7542,
      "ĠIm": 7543,
      "elie": 7544,
      "ĠBow": 7545,
      "Ġknots": 7546,
      "Ġalthough": 7547,
      "Ġflips": 7548,
      "Ġqui": 7549,
      "asty": 7550,
      "Ġcounts": 7551,
      "Ġreminding": 7552,
      "Ġtrusting": 7553,
      "Ġwisely": 7554,
      "Ġcovering": 7555,
      "Ġsniffing": 7556,
      "ĠPatty": 7557,
      "Ġspells": 7558,
      "Ġsqueaked": 7559,
      "Ġvehicles": 7560,
      "Ġsewing": 7561,
      "Ġaccomplished": 7562,
      "ĠMartha": 7563,
      "Ġcowboy": 7564,
      "Ġrefuse": 7565,
      "Ġcocoon": 7566,
      "Ġscrambled": 7567,
      "Ġconductor": 7568,
      "Ġgoodbyes": 7569,
      "pes": 7570,
      "please": 7571,
      "rup": 7572,
      "vant": 7573,
      "Ġdot": 7574,
      "Ġpound": 7575,
      "isc": 7576,
      "ĠSplash": 7577,
      "ĠHallow": 7578,
      "ĠHelen": 7579,
      "Ġyel": 7580,
      "Ġstumble": 7581,
      "ĠWendy": 7582,
      "Ġdecisions": 7583,
      "Ġblinking": 7584,
      "Ġcleared": 7585,
      "ĠCle": 7586,
      "Ġfins": 7587,
      "Ġunw": 7588,
      "acy": 7589,
      "ĠRyan": 7590,
      "Ġsmelling": 7591,
      "Ġpackages": 7592,
      "ÅĵIf": 7593,
      "ĠStar": 7594,
      "Ġpleaded": 7595,
      "undred": 7596,
      "ĠFreddie": 7597,
      "Ġpigeons": 7598,
      "Ġshovels": 7599,
      "manda": 7600,
      "Ġexercises": 7601,
      "Ġquarreling": 7602,
      "Ġpassports": 7603,
      "Ġwiggly": 7604,
      "ĠFroggy": 7605,
      "Ġmermaid": 7606,
      "Ġquieter": 7607,
      "ĠHalloween": 7608,
      "Hannah": 7609,
      "Mimi": 7610,
      "but": 7611,
      "dress": 7612,
      "line": 7613,
      "its": 7614,
      "Ġgerm": 7615,
      "Ġgazing": 7616,
      "ĠMag": 7617,
      "ĠAny": 7618,
      "ighting": 7619,
      "Ġdecl": 7620,
      "Ġflick": 7621,
      "Ġvines": 7622,
      "antha": 7623,
      "Ġslipping": 7624,
      "Ġhanding": 7625,
      "ĠPin": 7626,
      "Ġsquir": 7627,
      "ĠNana": 7628,
      "Ġhairdress": 7629,
      "Ġvisitor": 7630,
      "Ġteachers": 7631,
      "Ġimages": 7632,
      "Ġhonking": 7633,
      "Ġshrunk": 7634,
      "Ġsolving": 7635,
      "Ġprayers": 7636,
      "Ġfigures": 7637,
      "illiam": 7638,
      "Ġcuddles": 7639,
      "Ġpedaled": 7640,
      "...\"": 7641,
      "Ġannoyed": 7642,
      "Ġreassured": 7643,
      "Ġsyrup": 7644,
      "Ġgesture": 7645,
      "Ġtarget": 7646,
      "Ġyelped": 7647,
      "Listen": 7648,
      "father": 7649,
      "vroom": 7650,
      "rew": 7651,
      "Ġcoug": 7652,
      "Ġrin": 7653,
      "Ġlasers": 7654,
      "Ġgoodies": 7655,
      "Ġflip": 7656,
      "Ġthanking": 7657,
      "iona": 7658,
      "Ġjoked": 7659,
      "ilda": 7660,
      "ÅĵBut": 7661,
      "Ġdangers": 7662,
      "ĠGina": 7663,
      "ĠSpeedy": 7664,
      "Ġpaintbrush": 7665,
      "Ġbandages": 7666,
      "Ġgenerosity": 7667,
      "Ġsqueezing": 7668,
      "Ġdiscoveries": 7669,
      "ĠMikey": 7670,
      "Ġspeeding": 7671,
      "Ġdisturbing": 7672,
      "ĠSnowman": 7673,
      "Ġemerged": 7674,
      "belle": 7675,
      "Ġexperienced": 7676,
      "Je": 7677,
      "Ġtumbled": 7678,
      "Ġdump": 7679,
      "Ġnasty": 7680,
      "ĠSl": 7681,
      "str": 7682,
      "Ġspat": 7683,
      "inkle": 7684,
      "Ġuntied": 7685,
      "Ġconvin": 7686,
      "Ġwarmly": 7687,
      "ĠRain": 7688,
      "Ġafar": 7689,
      "ĠAli": 7690,
      "ĠZara": 7691,
      "Ġtwisting": 7692,
      "Ġbracelets": 7693,
      "Tweetie": 7694,
      "asmine": 7695,
      "Ġtype": 7696,
      "Ġinstruments": 7697,
      "Ġconcert": 7698,
      "steps": 7699,
      "Ġhairdresser": 7700,
      "Bet": 7701,
      "Joy": 7702,
      "cie": 7703,
      "da": 7704,
      "gain": 7705,
      "ware": 7706,
      "Ġties": 7707,
      "order": 7708,
      "Ġrays": 7709,
      "Ġweeds": 7710,
      "ĠBecause": 7711,
      "Ġscent": 7712,
      "Ġchilly": 7713,
      "ĠSofia": 7714,
      "Ġcheers": 7715,
      "ctric": 7716,
      "Ġstored": 7717,
      "acle": 7718,
      "Ġdressing": 7719,
      "Ġpresented": 7720,
      "Ġguessing": 7721,
      "Ġargum": 7722,
      "Ġscooters": 7723,
      "Ġsupported": 7724,
      "Ġstomp": 7725,
      "Ġincreasing": 7726,
      "Ġuniforms": 7727,
      "Ġsuffering": 7728,
      "intment": 7729,
      "ĠElsie": 7730,
      "Ġinspired": 7731,
      "Ġforgiveness": 7732,
      "Ġsnowflakes": 7733,
      "Ġnearest": 7734,
      "Ġaisle": 7735,
      "Ġnibbled": 7736,
      "Ġwrinkled": 7737,
      "Ġofficers": 7738,
      "Jess": 7739,
      "Mine": 7740,
      "mies": 7741,
      "pit": 7742,
      "Ġtipped": 7743,
      "ilities": 7744,
      "ĠHoney": 7745,
      "Ġrather": 7746,
      "Ġforce": 7747,
      "Ġflock": 7748,
      "ĠDin": 7749,
      "Ġtrans": 7750,
      "ÅĵHey": 7751,
      "ÅĵPlease": 7752,
      "Ġcons": 7753,
      "Ġunfortunately": 7754,
      "ĠNan": 7755,
      "ĠRay": 7756,
      "issa": 7757,
      "Ġjud": 7758,
      "Ġmarve": 7759,
      "Ġfoxes": 7760,
      "Ġbeeh": 7761,
      "Ġfootsteps": 7762,
      "Ġtoolbox": 7763,
      "Ġrobots": 7764,
      "ĠZoomy": 7765,
      "Ġangels": 7766,
      "Always": 7767,
      "Ġscarecrow": 7768,
      "Ġshorts": 7769,
      "Ġconfidence": 7770,
      "Ġdelayed": 7771,
      "ĠFrosty": 7772,
      "ĠClaus": 7773,
      "Ġswayed": 7774,
      "Ġseagulls": 7775,
      "Ġopport": 7776,
      "Ġoppos": 7777,
      "what": 7778,
      "Ġhundred": 7779,
      "ĠTiger": 7780,
      "ĠIzzy": 7781,
      "Ġwithin": 7782,
      "Ġmanners": 7783,
      "Ġtreated": 7784,
      "ÅĵGood": 7785,
      "Ġswimmer": 7786,
      "Ġcupcake": 7787,
      "ĠFlo": 7788,
      "ordinary": 7789,
      "ails": 7790,
      "ĠOther": 7791,
      "Ġhumming": 7792,
      "Ġfrowns": 7793,
      "Ġsharks": 7794,
      "Ġwealth": 7795,
      "Ġsweat": 7796,
      "Ġgrandson": 7797,
      "Ġgrandfather": 7798,
      "Chloe": 7799,
      "Ġstroke": 7800,
      "Anne": 7801,
      "Ġactivity": 7802,
      "Ġencouragement": 7803,
      "ĠChris": 7804,
      "Ġcotton": 7805,
      "Ġroutine": 7806,
      "Ġgranddaughter": 7807,
      "Ġtissue": 7808,
      "Each": 7809,
      "Ralph": 7810,
      "Watch": 7811,
      "even": 7812,
      "ibbit": 7813,
      "Ġting": 7814,
      "Ġtoss": 7815,
      "Ġsav": 7816,
      "Ġshall": 7817,
      "Ġjars": 7818,
      "artled": 7819,
      "Ġwhoever": 7820,
      "ĠLion": 7821,
      "Ġquilt": 7822,
      "Ġsquished": 7823,
      "Ġelectric": 7824,
      "Ġextraordinary": 7825,
      "Ġtoothbrush": 7826,
      "Ġsimply": 7827,
      "Ġspills": 7828,
      "Ġpeeled": 7829,
      "Ġresponded": 7830,
      "Ġmanager": 7831,
      "iscuit": 7832,
      "Ġopposite": 7833,
      "Am": 7834,
      "Bunny": 7835,
      "Out": 7836,
      "Rob": 7837,
      "Ted": 7838,
      "bank": 7839,
      "ilted": 7840,
      "Ġsmashed": 7841,
      "Ġjugg": 7842,
      "Ġexch": 7843,
      "Ġclues": 7844,
      "ĠElle": 7845,
      "Ġswo": 7846,
      "ĠFighting": 7847,
      "Ġtweet": 7848,
      "Ġjoins": 7849,
      "Ġwinding": 7850,
      "sol": 7851,
      "Ġtasting": 7852,
      "Ġdecoration": 7853,
      "Ġteams": 7854,
      "Meanwhile": 7855,
      "Ġsteering": 7856,
      "Ġcharacters": 7857,
      "Ġnuzzled": 7858,
      "Ġscurrying": 7859,
      "Karen": 7860,
      "Mat": 7861,
      "Take": 7862,
      "hil": 7863,
      "we": 7864,
      "Ġbou": 7865,
      "ĠTaking": 7866,
      "ats": 7867,
      "ĠSimon": 7868,
      "onnie": 7869,
      "Ġbeating": 7870,
      "lyn": 7871,
      "Ġsped": 7872,
      "ĠAva": 7873,
      "ĠWelcome": 7874,
      "quet": 7875,
      "Ġblond": 7876,
      "ĠDespite": 7877,
      "Ġtwenty": 7878,
      "Ġfond": 7879,
      "Ġgardens": 7880,
      "Ġraising": 7881,
      "Ġhardest": 7882,
      "ÅĵWho": 7883,
      "Ġdrown": 7884,
      "Ġdripping": 7885,
      "ugging": 7886,
      "Ġpurpose": 7887,
      "Ġprick": 7888,
      "Ġtentacles": 7889,
      "Ġaware": 7890,
      "Ġsweep": 7891,
      "Ġsweaty": 7892,
      "ĠDaniel": 7893,
      "Ġswaying": 7894,
      "Ġbeaming": 7895,
      "Ġcustomers": 7896,
      "Rosie": 7897,
      "Ġdeclared": 7898,
      "Ġbeehive": 7899,
      "Ġswollen": 7900,
      "Any": 7901,
      "Get": 7902,
      "Tilly": 7903,
      "pen": 7904,
      "ĠOkay": 7905,
      "rest": 7906,
      "Ġgrip": 7907,
      "oration": 7908,
      "Ġramp": 7909,
      "Ġstall": 7910,
      "Ġrely": 7911,
      "Ġbirdhouse": 7912,
      "Ġflipped": 7913,
      "ortunately": 7914,
      "empt": 7915,
      "ĠJoanna": 7916,
      "bee": 7917,
      "ĠGinger": 7918,
      "Ġdisc": 7919,
      "Ġslowed": 7920,
      "spe": 7921,
      "Ġvisits": 7922,
      "Ġjobs": 7923,
      "Ġattempt": 7924,
      "Ġnests": 7925,
      "Ġstorms": 7926,
      "Ġreminds": 7927,
      "Ġmagnif": 7928,
      "Ġencount": 7929,
      "Ġstatues": 7930,
      "Ġmillion": 7931,
      "Ġrepairman": 7932,
      "Ġdisplayed": 7933,
      "Ġnovels": 7934,
      "Ġbothering": 7935,
      "ĠLibby": 7936,
      "Two": 7937,
      "Ġcollapsed": 7938,
      "Ġtransf": 7939,
      "Ġbouquet": 7940,
      "Dear": 7941,
      "Mon": 7942,
      "emy": 7943,
      "oor": 7944,
      "Ġhoo": 7945,
      "Ġdep": 7946,
      "orter": 7947,
      "Ġyumm": 7948,
      "Ġsoot": 7949,
      "storm": 7950,
      "Ġform": 7951,
      "Ġshimmering": 7952,
      "Ġkings": 7953,
      "Ġloc": 7954,
      "Ġnodd": 7955,
      "Ġchanges": 7956,
      "Ġenemy": 7957,
      "Ġwaters": 7958,
      "Ġends": 7959,
      "Ġsnug": 7960,
      "Ġglob": 7961,
      "Ġnights": 7962,
      "ĠRu": 7963,
      "Ġcomforting": 7964,
      "Ġtidying": 7965,
      "Ġrelaxing": 7966,
      "Ġcrowns": 7967,
      "Ġclearly": 7968,
      "Ġquestioned": 7969,
      "Ġlipstick": 7970,
      "Ġmagazines": 7971,
      "Ġinchworm": 7972,
      "Ġflashing": 7973,
      "Ġgerms": 7974,
      "Ġconsid": 7975,
      "Ġglobe": 7976,
      "Boys": 7977,
      "uel": 7978,
      "Ġdarl": 7979,
      "atitude": 7980,
      "ances": 7981,
      "rie": 7982,
      "Ġlies": 7983,
      "ended": 7984,
      "ĠMina": 7985,
      "ĠAbi": 7986,
      "romise": 7987,
      "Ġgratitude": 7988,
      "ĠPaula": 7989,
      "athy": 7990,
      "Ġguide": 7991,
      "Ġexpert": 7992,
      "Ġself": 7993,
      "Ġpizzas": 7994,
      "Beep": 7995,
      "Ġcamel": 7996,
      "Ġwindowsill": 7997,
      "Ġvibr": 7998,
      "Ġmosquitoes": 7999,
      "Ġobeyed": 8000,
      "Ġmeowing": 8001,
      "Ġfocus": 8002,
      "ĠPippa": 8003,
      "Ġthorns": 8004,
      "ĠJoanne": 8005,
      "Ġargument": 8006,
      "Ġdarlings": 8007,
      "Cindy": 8008,
      "Too": 8009,
      "ae": 8010,
      "hind": 8011,
      "ulp": 8012,
      "Ġbitten": 8013,
      "Ġwasting": 8014,
      "Ġuna": 8015,
      "ppa": 8016,
      "ĠmomÃ¢": 8017,
      "ĠBrian": 8018,
      "Ġsculp": 8019,
      "ift": 8020,
      "ĠLooking": 8021,
      "Ġtearing": 8022,
      "ĠCurious": 8023,
      "ÅĵSee": 8024,
      "Ġdoorbell": 8025,
      "ĠSpring": 8026,
      "Ġmovements": 8027,
      "Ġriverbank": 8028,
      "Ġsmoking": 8029,
      "Ġpicnics": 8030,
      "ĠAlan": 8031,
      "Ġsoapy": 8032,
      "Ġturtles": 8033,
      "Ġenviron": 8034,
      "Ġbeeped": 8035,
      "Ġprevented": 8036,
      "Ġglittering": 8037,
      "Ġclicked": 8038,
      "Ġattacked": 8039,
      "Ġexpression": 8040,
      "Julie": 8041,
      "Ġmunching": 8042,
      "Ġsadder": 8043,
      "Ġcorrectly": 8044,
      "Ġconvinced": 8045,
      "Ġenvironment": 8046,
      "Mira": 8047,
      "earing": 8048,
      "po": 8049,
      "Ġtumm": 8050,
      "ering": 8051,
      "Ġheaven": 8052,
      "ĠSatur": 8053,
      "Ġrowed": 8054,
      "ĠBarry": 8055,
      "ĠMother": 8056,
      "Ġloses": 8057,
      "Ġscri": 8058,
      "ĠEva": 8059,
      "ĠDory": 8060,
      "anted": 8061,
      "Ġbrains": 8062,
      "Yesterday": 8063,
      "ÅĵSure": 8064,
      "ĠPretty": 8065,
      "ipes": 8066,
      "LetÃ¢": 8067,
      "Ġbrightest": 8068,
      "Ġsquaw": 8069,
      "Ġsandpit": 8070,
      "uffin": 8071,
      "Ġsprout": 8072,
      "Ġwhistles": 8073,
      "Ġgiggles": 8074,
      "Ġminds": 8075,
      "Ġbanged": 8076,
      "Ġcheaper": 8077,
      "Ġlanguages": 8078,
      "Ġsprinkle": 8079,
      "Ġbothered": 8080,
      "Ġpurrs": 8081,
      "Ġinstrument": 8082,
      "Ġnurses": 8083,
      "Ġnibble": 8084,
      "Ġsurvive": 8085,
      "Ġencountered": 8086,
      "Ġtummies": 8087,
      "ĠSaturday": 8088,
      "Ol": 8089,
      "rily": 8090,
      "water": 8091,
      "Ġgall": 8092,
      "ĠSnap": 8093,
      "ĠAna": 8094,
      "aret": 8095,
      "Ġfailed": 8096,
      "Ġswitched": 8097,
      "usty": 8098,
      "Ġcares": 8099,
      "ĠMomma": 8100,
      "ĠCara": 8101,
      "ĠRavi": 8102,
      "Ġparted": 8103,
      "boards": 8104,
      "Ġvisitors": 8105,
      "Ġcaw": 8106,
      "Ġdesigning": 8107,
      "Goodnight": 8108,
      "Ġrecorder": 8109,
      "Ġclassmates": 8110,
      "Ġships": 8111,
      "Ġcracks": 8112,
      "Ġcheckout": 8113,
      "Ġpepperoni": 8114,
      "ĠRoger": 8115,
      "Leave": 8116,
      "ĠJean": 8117,
      "ĠKevin": 8118,
      "Ġoutfits": 8119,
      "ĠJonny": 8120,
      "Ġastronauts": 8121,
      "Ġexploded": 8122,
      "ĠCrabby": 8123,
      "Bang": 8124,
      "Liz": 8125,
      "opper": 8126,
      "val": 8127,
      "Ġtin": 8128,
      "Ġbuddy": 8129,
      "ative": 8130,
      "ĠShelly": 8131,
      "Ġsheets": 8132,
      "elope": 8133,
      "ittered": 8134,
      "Ġwhoo": 8135,
      "Ġkilled": 8136,
      "Ġbond": 8137,
      "getic": 8138,
      "Ġflashed": 8139,
      "arable": 8140,
      "ĠNora": 8141,
      "Ġfloors": 8142,
      "Ġcompan": 8143,
      "Ġinstantly": 8144,
      "Ġtroubles": 8145,
      "ĠStrip": 8146,
      "Ġhangers": 8147,
      "Alright": 8148,
      "Ġunlo": 8149,
      "Ġrescuing": 8150,
      "ĠPatch": 8151,
      "Ġunpacking": 8152,
      "Ġfilms": 8153,
      "Ġtraveling": 8154,
      "Ġapplauding": 8155,
      "Ġcontainer": 8156,
      "Ġspits": 8157,
      "ĠMegan": 8158,
      "Ġflaps": 8159,
      "Ġtextures": 8160,
      "Ġsternly": 8161,
      "Ġoccasion": 8162,
      "Ġdisobey": 8163,
      "Jeff": 8164,
      "Ke": 8165,
      "Papa": 8166,
      "bu": 8167,
      "Ġill": 8168,
      "Ġfain": 8169,
      "anced": 8170,
      "eline": 8171,
      "ĠMan": 8172,
      "ĠMaisy": 8173,
      "Ġsometime": 8174,
      "ĠFel": 8175,
      "Ġfires": 8176,
      "Ġimaginary": 8177,
      "Ġpractised": 8178,
      "Ġcheerfully": 8179,
      "Ġcomputers": 8180,
      "Ġcrocodiles": 8181,
      "Ġmischie": 8182,
      "udged": 8183,
      "Ġtaped": 8184,
      "Ġinsep": 8185,
      "Ġairplanes": 8186,
      "Ġexpecting": 8187,
      "ĠBobbie": 8188,
      "Someone": 8189,
      "ĠPinchy": 8190,
      "Ġmischievous": 8191,
      "David": 8192,
      "Poppy": 8193,
      "lt": 8194,
      "lied": 8195,
      "oc": 8196,
      "pr": 8197,
      "ita": 8198,
      "erk": 8199,
      "Ġnatur": 8200,
      "ĠSk": 8201,
      "Ġyum": 8202,
      "amma": 8203,
      "Ġsmelt": 8204,
      "Ġseals": 8205,
      "ĠAmanda": 8206,
      "ĠYouÃ¢": 8207,
      "ĠLy": 8208,
      "Ġchin": 8209,
      "bba": 8210,
      "Ġoverhead": 8211,
      "Ġexploration": 8212,
      "Ġdeed": 8213,
      "Ġsquinted": 8214,
      "Ġbuses": 8215,
      "airy": 8216,
      "Ġelbow": 8217,
      "Ġtownspe": 8218,
      "Ġmattered": 8219,
      "Ġbreaths": 8220,
      "Ġtickling": 8221,
      "Ġscrub": 8222,
      "ĠBecky": 8223,
      "Ġcrawls": 8224,
      "Ġwiser": 8225,
      "Ġorders": 8226,
      "ĠFinny": 8227,
      "Ġerase": 8228,
      "Ġexplains": 8229,
      "Ġobserving": 8230,
      "Ġpaddling": 8231,
      "ĠJanie": 8232,
      "Freddy": 8233,
      "Ġparticularly": 8234,
      "Ġconquered": 8235,
      "Ġcompanion": 8236,
      "Ġinseparable": 8237,
      "Ġtownspeople": 8238,
      "Cla": 8239,
      "Honey": 8240,
      "flowers": 8241,
      "hny": 8242,
      "py": 8243,
      "Ġbound": 8244,
      "Ġwaded": 8245,
      "ators": 8246,
      "ĠBer": 8247,
      "Ġrewards": 8248,
      "ĠĊĊ": 8249,
      "Ġspy": 8250,
      "asant": 8251,
      "Ġtraded": 8252,
      "Ġskies": 8253,
      "Momma": 8254,
      "Ġchecks": 8255,
      "ĠPen": 8256,
      "Ġforgives": 8257,
      "Ġsingers": 8258,
      "Ġsets": 8259,
      "Ġzooms": 8260,
      "Ġrobin": 8261,
      "Ġsprays": 8262,
      "ĠAlbert": 8263,
      "Ġrats": 8264,
      "Ġterrified": 8265,
      "Ġghosts": 8266,
      "Ġvests": 8267,
      "ĠMaddie": 8268,
      "Brown": 8269,
      "Ġnodding": 8270,
      "Claire": 8271,
      "Milo": 8272,
      "Zoe": 8273,
      "belt": 8274,
      "five": 8275,
      "lo": 8276,
      "lers": 8277,
      "olp": 8278,
      "rough": 8279,
      "Ġicing": 8280,
      "ĠTy": 8281,
      "Ġhaven": 8282,
      "ĠSadie": 8283,
      "llas": 8284,
      "ĠHope": 8285,
      "otch": 8286,
      "Ġshallow": 8287,
      "Ġclerk": 8288,
      "ĠWilliam": 8289,
      "Ġsurely": 8290,
      "Ġsandy": 8291,
      "ĠDog": 8292,
      "Jacky": 8293,
      "asha": 8294,
      "Ġpetting": 8295,
      "Ġembra": 8296,
      "Ġsupplied": 8297,
      "Stay": 8298,
      "Ġstretches": 8299,
      "Ġpinching": 8300,
      "Ġawful": 8301,
      "Ġawhile": 8302,
      "ivia": 8303,
      "Ġscratching": 8304,
      "ĠMarie": 8305,
      "Ġumbrellas": 8306,
      "udolp": 8307,
      "Ġscolds": 8308,
      "Ġapplause": 8309,
      "ĠSeeing": 8310,
      "Ġfascinating": 8311,
      "ĠFrankie": 8312,
      "Maya": 8313,
      "Ġprickly": 8314,
      "Ġsculpture": 8315,
      "udolph": 8316,
      "Buzz": 8317,
      "Pl": 8318,
      "Put": 8319,
      "free": 8320,
      "oss": 8321,
      "Ġ5": 8322,
      "Ġsens": 8323,
      "Ġbas": 8324,
      "idnight": 8325,
      "immered": 8326,
      "Ġrumbling": 8327,
      "rick": 8328,
      "Ġmommies": 8329,
      "Ġweighing": 8330,
      "ĠBa": 8331,
      "ĠBaa": 8332,
      "ĠBonnie": 8333,
      "Ġshorter": 8334,
      "ĠAlly": 8335,
      "ddie": 8336,
      "ĠLia": 8337,
      "ĠDuck": 8338,
      "ĠFiona": 8339,
      "Ġpeep": 8340,
      "ĠAnnabelle": 8341,
      "Ġdonkey": 8342,
      "ÅĵMaybe": 8343,
      "Ġleaking": 8344,
      "Ġbuckled": 8345,
      "Ġbathing": 8346,
      "Ġreturning": 8347,
      "screen": 8348,
      "Ġseatbelt": 8349,
      "Ġwhisk": 8350,
      "Ġtesting": 8351,
      "Ġchecking": 8352,
      "Ġmodels": 8353,
      "Ġlabels": 8354,
      "Ġknocking": 8355,
      "Ġenergetic": 8356,
      "ĠPepper": 8357,
      "ĠTrust": 8358,
      "Ġpressing": 8359,
      "Ġsirens": 8360,
      "Ġcustomer": 8361,
      "Ġopportunity": 8362,
      "Ġnatural": 8363,
      "Buddy": 8364,
      "Che": 8365,
      "Nice": 8366,
      "Ġsigning": 8367,
      "Ġbless": 8368,
      "Ġfet": 8369,
      "ouched": 8370,
      "Ġwashes": 8371,
      "Ġodd": 8372,
      "Ġnapped": 8373,
      "anish": 8374,
      "Ġsteth": 8375,
      "Ġplugged": 8376,
      "unic": 8377,
      "Ġshin": 8378,
      "elle": 8379,
      "Ġchill": 8380,
      "Ġblown": 8381,
      "Ġtapping": 8382,
      "Ġsunscreen": 8383,
      "Ġwaterm": 8384,
      "Ġstrum": 8385,
      "Ġteap": 8386,
      "Ġglimmering": 8387,
      "Ġconcent": 8388,
      "Ġclosing": 8389,
      "Ġgrassho": 8390,
      "Ġgulp": 8391,
      "Ġbounces": 8392,
      "Ġpreschool": 8393,
      "Ġmysteries": 8394,
      "Ġwildflowers": 8395,
      "Ġdigs": 8396,
      "Ġstamped": 8397,
      "Ġtraps": 8398,
      "Ġdestroying": 8399,
      "Ġexperiment": 8400,
      "Ġweapons": 8401,
      "ĠAnother": 8402,
      "ĠJonathan": 8403,
      "ĠBirdie": 8404,
      "ĠMaddy": 8405,
      "True": 8406,
      "Ġdefeated": 8407,
      "Ġunwra": 8408,
      "Ġstethos": 8409,
      "Ġconcentr": 8410,
      "',": 8411,
      "Aunt": 8412,
      "Arrr": 8413,
      "Co": 8414,
      "fly": 8415,
      "lor": 8416,
      "vince": 8417,
      "Ġ4": 8418,
      "ouraged": 8419,
      "oma": 8420,
      "Ġbea": 8421,
      "Ġplug": 8422,
      "Ġrebu": 8423,
      "ĠwhatÃ¢": 8424,
      "Ġcarries": 8425,
      "ooks": 8426,
      "andra": 8427,
      "ÅĵBe": 8428,
      "ĠPhil": 8429,
      "Ġconvince": 8430,
      "Ġsoundly": 8431,
      "ĠRuth": 8432,
      "Ġdrip": 8433,
      "Ġsnowy": 8434,
      "uggy": 8435,
      "Ġprog": 8436,
      "Ġcourt": 8437,
      "Ġyoungest": 8438,
      "Ġactive": 8439,
      "Ġburns": 8440,
      "ippers": 8441,
      "Ġhunting": 8442,
      "Ġlowered": 8443,
      "Ġbackpacks": 8444,
      "Ġfleas": 8445,
      "Ġsqueaky": 8446,
      "Ġquacking": 8447,
      "Ġrows": 8448,
      "amboo": 8449,
      "Ġmeows": 8450,
      "Uncle": 8451,
      "Ġwounds": 8452,
      "Ġcommon": 8453,
      "Ġembarrassing": 8454,
      "Ġcowboys": 8455,
      "whel": 8456,
      "Ġgallop": 8457,
      "pril": 8458,
      "Ġwatermel": 8459,
      "Ġteapot": 8460,
      "Jessie": 8461,
      "Lena": 8462,
      "Pretty": 8463,
      "oard": 8464,
      "rink": 8465,
      "sie": 8466,
      "Ġlar": 8467,
      "Ġcuc": 8468,
      "ĠTime": 8469,
      "ĠTerry": 8470,
      "ĠHopper": 8471,
      "adually": 8472,
      "Ġformed": 8473,
      "ĠBra": 8474,
      "Ġwhales": 8475,
      "icle": 8476,
      "Ġcanv": 8477,
      "Ġbacks": 8478,
      "Ġfunn": 8479,
      "ĠWigg": 8480,
      "Ġfaith": 8481,
      "Ġswat": 8482,
      "Ġswallow": 8483,
      "Ġaboard": 8484,
      "ĠSamantha": 8485,
      "Ġintently": 8486,
      "Ġoverwhel": 8487,
      "ĠPink": 8488,
      "ĠGemma": 8489,
      "Josh": 8490,
      "Ġmesses": 8491,
      "Ġmessages": 8492,
      "Ġcompared": 8493,
      "otte": 8494,
      "Ġprod": 8495,
      "Ġwelcoming": 8496,
      "Instead": 8497,
      "arlotte": 8498,
      "Ġadds": 8499,
      "Ġgoats": 8500,
      "Ġtanks": 8501,
      "Ġpantry": 8502,
      "faction": 8503,
      "Ġcrystals": 8504,
      "ĠPeep": 8505,
      "ĠPeggy": 8506,
      "Ġburger": 8507,
      "Ġoffering": 8508,
      "Ġfloats": 8509,
      "Ġdemanding": 8510,
      "Ġsatisfaction": 8511,
      "Ġopinions": 8512,
      "ĠTwinkle": 8513,
      "Ġcommunic": 8514,
      "Ġtypes": 8515,
      "ĠTessa": 8516,
      "ĠQuackers": 8517,
      "reya": 8518,
      "ĠRocky": 8519,
      "Ġmatey": 8520,
      "Ġgrasshopper": 8521,
      "Ġstethoscope": 8522,
      "Hold": 8523,
      "Vroom": 8524,
      "iens": 8525,
      "jest": 8526,
      "ris": 8527,
      "Ġtips": 8528,
      "ĠHold": 8529,
      "Ġinter": 8530,
      "Ġshave": 8531,
      "Ġwhimp": 8532,
      "ĠMuffin": 8533,
      "ĠJu": 8534,
      "Ġaliens": 8535,
      "Ġbride": 8536,
      "ĠWin": 8537,
      "roll": 8538,
      "Ġability": 8539,
      "Ġque": 8540,
      "than": 8541,
      "ĠNice": 8542,
      "ĠRudolph": 8543,
      "Ġcompete": 8544,
      "Ġjoyfully": 8545,
      "Ġcreams": 8546,
      "Ġbats": 8547,
      "Ġmedals": 8548,
      "Ġanswering": 8549,
      "Ġthicker": 8550,
      "Ġsqueezes": 8551,
      "Ġapology": 8552,
      "Ġscares": 8553,
      "Ġmember": 8554,
      "Ġcops": 8555,
      "Ġguarding": 8556,
      "Ġimproving": 8557,
      "Ġproviding": 8558,
      "Quack": 8559,
      "Ġrobbers": 8560,
      "ĠPoor": 8561,
      "ĠHootie": 8562,
      "ĠEliz": 8563,
      "Ġdetails": 8564,
      "Ġtemptation": 8565,
      "ĠStanley": 8566,
      "Suzie": 8567,
      "Ġslithered": 8568,
      "Ġresponsibility": 8569,
      "Ġreappeared": 8570,
      "Ġvibrant": 8571,
      "Ġfaint": 8572,
      "Ġwatermelon": 8573,
      "Big": 8574,
      "Feeling": 8575,
      "Jon": 8576,
      "Lizzie": 8577,
      "Mart": 8578,
      "lock": 8579,
      "prin": 8580,
      "well": 8581,
      "Ġtilted": 8582,
      "Ġsipped": 8583,
      "Ġtopp": 8584,
      "omb": 8585,
      "ĠTre": 8586,
      "Ġgroom": 8587,
      "Ġhab": 8588,
      "stand": 8589,
      "stantly": 8590,
      "Ġdolly": 8591,
      "Ġspies": 8592,
      "ĠAgain": 8593,
      "ĠJasmine": 8594,
      "arefully": 8595,
      "Ġroast": 8596,
      "Ġtreas": 8597,
      "Ġlapt": 8598,
      "ĠLots": 8599,
      "Ġgrumbled": 8600,
      "Ġbubbly": 8601,
      "ĠColin": 8602,
      "Thomas": 8603,
      "ÅĵOk": 8604,
      "aste": 8605,
      "Ġcleans": 8606,
      "ĠRight": 8607,
      "Ġamused": 8608,
      "ship": 8609,
      "Ġhotter": 8610,
      "Ġsprang": 8611,
      "Ġprotection": 8612,
      "Ġtunes": 8613,
      "ĠDonÃ¢": 8614,
      "Ġtorto": 8615,
      "Ġcompliment": 8616,
      "ĠPeppa": 8617,
      "Ġbeeping": 8618,
      "Ġgroan": 8619,
      "ĠSnowball": 8620,
      "Ġstudent": 8621,
      "Ġharvest": 8622,
      "Ġsnaps": 8623,
      "Ġspilling": 8624,
      "etchup": 8625,
      "ĠMelissa": 8626,
      "Ġbehaviour": 8627,
      "ĠPlaying": 8628,
      "Ġexperiences": 8629,
      "Ġpossess": 8630,
      "elieve": 8631,
      "Ġdrowned": 8632,
      "Ġdiscouraged": 8633,
      "Ġunable": 8634,
      "Ġcanvas": 8635,
      "Ġqueens": 8636,
      "Abby": 8637,
      "ca": 8638,
      "wing": 8639,
      "ĠYum": 8640,
      "Ġbamboo": 8641,
      "Ġmunched": 8642,
      "ĠSal": 8643,
      "ori": 8644,
      "ormed": 8645,
      "Ġupside": 8646,
      "ending": 8647,
      "Ġketchup": 8648,
      "ĠMoo": 8649,
      "icking": 8650,
      "ĠDuke": 8651,
      "venir": 8652,
      "Ġench": 8653,
      "Ġlongest": 8654,
      "ĠJoJo": 8655,
      "Ġflowing": 8656,
      "ully": 8657,
      "Ġcheated": 8658,
      "Ġglittered": 8659,
      "Ġwinds": 8660,
      "Ġbluebird": 8661,
      "Ġmeaning": 8662,
      "Ġcrouched": 8663,
      "angle": 8664,
      "idents": 8665,
      "Ġnecks": 8666,
      "Ġservant": 8667,
      "ĠAlison": 8668,
      "Ġhonesty": 8669,
      "Ġcroaked": 8670,
      "Ġsuccessfully": 8671,
      "Ġbeetles": 8672,
      "Ġenvelopes": 8673,
      "Ġmiller": 8674,
      "Ġkayaking": 8675,
      "Ġquarre": 8676,
      "Ġfreezing": 8677,
      "Choo": 8678,
      "Chirp": 8679,
      "ĠVroom": 8680,
      "Ġcubs": 8681,
      "ccidents": 8682,
      "Ġcalmer": 8683,
      "ĠCatty": 8684,
      "ĠLiam": 8685,
      "Which": 8686,
      "Ġdodged": 8687,
      "Ġearned": 8688,
      "Ġsouvenir": 8689,
      "ĠMagic": 8690,
      "ĠNancy": 8691,
      "Ġelectricity": 8692,
      "Brownie": 8693,
      "Ġrebuild": 8694,
      "Ġlarger": 8695,
      "Ġlaptop": 8696,
      "Curious": 8697,
      "Pip": 8698,
      "Â¦": 8699,
      "Ġtheat": 8700,
      "Ġlim": 8701,
      "idi": 8702,
      "Ġhamb": 8703,
      "ĠSleep": 8704,
      "ĠSuper": 8705,
      "ĠweÃ¢": 8706,
      "Ġwhined": 8707,
      "ĠAlf": 8708,
      "âĤ¬Â¦": 8709,
      "ĠDoug": 8710,
      "ĠFuzz": 8711,
      "Ġposes": 8712,
      "Ġbund": 8713,
      "emon": 8714,
      "ĠCro": 8715,
      "ĠPa": 8716,
      "ĠPu": 8717,
      "Ġunco": 8718,
      "ulars": 8719,
      "ĠAllie": 8720,
      "Ġsalon": 8721,
      "ĠStill": 8722,
      "Ġ''": 8723,
      "Ġsnapping": 8724,
      "ĠBruce": 8725,
      "Ġmiracle": 8726,
      "ĠBubba": 8727,
      "Ġintelligence": 8728,
      "Ġcombed": 8729,
      "Ġvolcanoes": 8730,
      "Ġbinoc": 8731,
      "Ġhaircuts": 8732,
      "Ġrags": 8733,
      "Ġrepeats": 8734,
      "ĠIsn": 8735,
      "Ġsituations": 8736,
      "ĠOlivia": 8737,
      "Ġjudges": 8738,
      "Ġlocal": 8739,
      "Ġoverwhelmed": 8740,
      "Ġtreasured": 8741,
      "Ġtheatre": 8742,
      "Ġhambur": 8743,
      "Ġbinoculars": 8744,
      "Gina": 8745,
      "Lizzy": 8746,
      "barrow": 8747,
      "car": 8748,
      "over": 8749,
      "yle": 8750,
      "Ãĥ": 8751,
      "Ġtot": 8752,
      "Ġborn": 8753,
      "Ġbiscuit": 8754,
      "Ġhike": 8755,
      "Ġlush": 8756,
      "Ġdashed": 8757,
      "Ġpuck": 8758,
      "Ġpouch": 8759,
      "iliar": 8760,
      "ĠSay": 8761,
      "onest": 8762,
      "oto": 8763,
      "Ġinches": 8764,
      "igger": 8765,
      "amiliar": 8766,
      "Ġshattered": 8767,
      "Ġdoves": 8768,
      "ĠMidnight": 8769,
      "Ġknives": 8770,
      "ĠWil": 8771,
      "ĠWoo": 8772,
      "Ġworst": 8773,
      "ellie": 8774,
      "ĠEver": 8775,
      "Ġbloss": 8776,
      "ĠDra": 8777,
      "Ġhoses": 8778,
      "Ġtrigger": 8779,
      "Ġglided": 8780,
      "Ġracer": 8781,
      "Ġstores": 8782,
      "Ġcris": 8783,
      "Ġcrops": 8784,
      "ĠRicky": 8785,
      "Ġruff": 8786,
      "Ġdrill": 8787,
      "shaped": 8788,
      "Ġtops": 8789,
      "Ġchopping": 8790,
      "Ġdryer": 8791,
      "ĠOf": 8792,
      "ĠOuch": 8793,
      "Everyday": 8794,
      "Ġserving": 8795,
      "Ġpleasant": 8796,
      "Ġhummed": 8797,
      "Ġmoonlight": 8798,
      "Ġshoots": 8799,
      "Ġwheelbarrow": 8800,
      "Ġjogger": 8801,
      "Ġmelody": 8802,
      "Ġexplaining": 8803,
      "ibly": 8804,
      "ĠMatilda": 8805,
      "Ġchatted": 8806,
      "Ġunfamiliar": 8807,
      "Ġswirls": 8808,
      "ĠMonkey": 8809,
      "Ġchoosing": 8810,
      "Ġsnorted": 8811,
      "Ġpositive": 8812,
      "ĠImmediately": 8813,
      "Ġtortoise": 8814,
      "Bu": 8815,
      "Deal": 8816,
      "HE": 8817,
      "Never": 8818,
      "Ollie": 8819,
      "Red": 8820,
      "lish": 8821,
      "off": 8822,
      "edic": 8823,
      "Ġfade": 8824,
      "Ġlump": 8825,
      "Ġcine": 8826,
      "erg": 8827,
      "Ġdou": 8828,
      "Ġpipes": 8829,
      "enn": 8830,
      "Ġnanny": 8831,
      "ĠSince": 8832,
      "Ġthump": 8833,
      "Ġbeast": 8834,
      "Ġshines": 8835,
      "endant": 8836,
      "Ġnoticing": 8837,
      "Ġank": 8838,
      "ĠAr": 8839,
      "ĠApril": 8840,
      "Ġlevers": 8841,
      "Ġswap": 8842,
      "Ġblushed": 8843,
      "uddles": 8844,
      "Ġrunner": 8845,
      "Ġenem": 8846,
      "Ġglisten": 8847,
      "Ġunderwater": 8848,
      "Ġfinishes": 8849,
      "Ġrealizes": 8850,
      "Ġmajest": 8851,
      "Ġenjoyable": 8852,
      "ĠRich": 8853,
      "shadow": 8854,
      "Ġhatched": 8855,
      "Ġstepping": 8856,
      "Ġpapa": 8857,
      "Ġdrying": 8858,
      "colored": 8859,
      "Ġpasses": 8860,
      "Ġdisappointment": 8861,
      "ĠBehind": 8862,
      "Ġtwists": 8863,
      "Ġhunters": 8864,
      "Ġscattering": 8865,
      "Ġsupporting": 8866,
      "Ġluckiest": 8867,
      "Ġunlocking": 8868,
      "Ġstrips": 8869,
      "Ġburgers": 8870,
      "ÅĵWeÃ¢": 8871,
      "ĠCaroline": 8872,
      "Ġannounced": 8873,
      "ĠMae": 8874,
      "Ġproperty": 8875,
      "Ġbruises": 8876,
      "Ġcinema": 8877,
      "Ġenemies": 8878,
      "!'.": 8879,
      "Friend": 8880,
      "Jacob": 8881,
      "Kayla": 8882,
      "Mabel": 8883,
      "Nick": 8884,
      "Snow": 8885,
      "cus": 8886,
      "ker": 8887,
      "ĠĠ": 8888,
      "Ġicky": 8889,
      "Ġwig": 8890,
      "nded": 8891,
      "Ġbomb": 8892,
      "Ġhood": 8893,
      "Ġlull": 8894,
      "ĠHa": 8895,
      "aming": 8896,
      "Ġforts": 8897,
      "ĠBounce": 8898,
      "ĠBuggy": 8899,
      "alled": 8900,
      "Ġwhir": 8901,
      "ecca": 8902,
      "Ġbold": 8903,
      "Ġexamp": 8904,
      "Ġclut": 8905,
      "ĠLenny": 8906,
      "Ġgoodness": 8907,
      "ĠDe": 8908,
      "ĠJody": 8909,
      "Ġbadger": 8910,
      "Ġdev": 8911,
      "Ġstew": 8912,
      "ĠDoes": 8913,
      "ĠFlora": 8914,
      "Still": 8915,
      "Ġmeadows": 8916,
      "Ġcircled": 8917,
      "Ġcaterpillars": 8918,
      "Ġweaker": 8919,
      "Ġcherish": 8920,
      "Along": 8921,
      "Ġhooks": 8922,
      "Ġmugs": 8923,
      "ĠShare": 8924,
      "Ġwiggling": 8925,
      "Ġthumbs": 8926,
      "Ġrails": 8927,
      "ĠWhoever": 8928,
      "Robbie": 8929,
      "Ġdaily": 8930,
      "Ġrevealing": 8931,
      "ĠMona": 8932,
      "Ġchooses": 8933,
      "Ġwriggled": 8934,
      "Ġpeeped": 8935,
      "Both": 8936,
      "Hmm": 8937,
      "Kids": 8938,
      "Zoom": 8939,
      "gar": 8940,
      "ĠOh": 8941,
      "Ġactor": 8942,
      "Ġgoo": 8943,
      "Ġgates": 8944,
      "Ġnic": 8945,
      "orking": 8946,
      "ĠHurry": 8947,
      "Ġriddle": 8948,
      "Ġplumber": 8949,
      "Ġplayd": 8950,
      "ĠBoo": 8951,
      "Ġboards": 8952,
      "ics": 8953,
      "Ġlevel": 8954,
      "Ġscow": 8955,
      "Ġscores": 8956,
      "Ġroamed": 8957,
      "Ġprank": 8958,
      "Ġpoles": 8959,
      "Ġpeas": 8960,
      "Ġpeak": 8961,
      "Ġtrim": 8962,
      "Ġbud": 8963,
      "ĠNever": 8964,
      "Ġdifferently": 8965,
      "Ġbowing": 8966,
      "Ġhunger": 8967,
      "Ġarmor": 8968,
      "ĠKaty": 8969,
      "Ġroller": 8970,
      "ouncy": 8971,
      "Ġcafe": 8972,
      "ĠStartled": 8973,
      "Ġtests": 8974,
      "keepers": 8975,
      "Spike": 8976,
      "Ġsilently": 8977,
      "Ġangrily": 8978,
      "Ġhamster": 8979,
      "Ġdesigner": 8980,
      "uction": 8981,
      "ĠShow": 8982,
      "Ġpoisonous": 8983,
      "ĠReady": 8984,
      "Ġladybird": 8985,
      "Ġhonks": 8986,
      "Ġannoying": 8987,
      "ĠSunshine": 8988,
      "Ġgasps": 8989,
      "Ġinjured": 8990,
      "Ġscenery": 8991,
      "Ġdistracted": 8992,
      "ĠBernie": 8993,
      "ĠTyler": 8994,
      "Ġbeaver": 8995,
      "Ġnicest": 8996,
      "Lucky": 8997,
      "Santa": 8998,
      "Tara": 8999,
      "jack": 9000,
      "just": 9001,
      "Ġouch": 9002,
      "Ġhudd": 9003,
      "Ġheels": 9004,
      "ĠToto": 9005,
      "ann": 9006,
      "uno": 9007,
      "ĠBad": 9008,
      "Ġlocks": 9009,
      "ĠAccidents": 9010,
      "hings": 9011,
      "Ġblur": 9012,
      "ĠFreya": 9013,
      "Ġmoat": 9014,
      "ucas": 9015,
      "ĠJackÃ¢": 9016,
      "ĠJackie": 9017,
      "berry": 9018,
      "Ġraking": 9019,
      "ÅĵYay": 9020,
      "Ġwolves": 9021,
      "cts": 9022,
      "ĠPaw": 9023,
      "ĠGabby": 9024,
      "Ġbaa": 9025,
      "Ġattitude": 9026,
      "earl": 9027,
      "Ġalongside": 9028,
      "oga": 9029,
      "balls": 9030,
      "Everything": 9031,
      "Ġpills": 9032,
      "ĠGold": 9033,
      "Ġstirs": 9034,
      "Ġtrusts": 9035,
      "Ġstuffing": 9036,
      "Ġcracker": 9037,
      "Although": 9038,
      "Ġrewarding": 9039,
      "Ġlizards": 9040,
      "Ġexercising": 9041,
      "aitlyn": 9042,
      "ĠOrange": 9043,
      "Ġhesitation": 9044,
      "ĠOliver": 9045,
      "Ġcrowded": 9046,
      "Ġchatting": 9047,
      "Ahoy": 9048,
      "Ġflashes": 9049,
      "Ġblonde": 9050,
      "Ġhooves": 9051,
      "Ġsoothing": 9052,
      "ĠSkip": 9053,
      "Ġcommunicate": 9054,
      "Ġankle": 9055,
      "Ġglistening": 9056,
      "Ġexample": 9057,
      "Danger": 9058,
      "Gabby": 9059,
      "Jazz": 9060,
      "Tiny": 9061,
      "field": 9062,
      "hib": 9063,
      "rupt": 9064,
      "Ġthie": 9065,
      "lest": 9066,
      "Ġrack": 9067,
      "Ġripp": 9068,
      "Ġhisses": 9069,
      "ĠBang": 9070,
      "Ġwhizz": 9071,
      "Ġrecess": 9072,
      "ĠJam": 9073,
      "Ġfacing": 9074,
      "Ġotherwise": 9075,
      "ĠEd": 9076,
      "Ġblades": 9077,
      "Ġbecomes": 9078,
      "oured": 9079,
      "Ġpose": 9080,
      "Ġmoons": 9081,
      "ĠWeÃ¢": 9082,
      "Ġglared": 9083,
      "ÅĵMummy": 9084,
      "ÅĵThanks": 9085,
      "ĠGray": 9086,
      "Ġdears": 9087,
      "Ġsweetly": 9088,
      "Ġfloppy": 9089,
      "Ġmessed": 9090,
      "ĠAfterwards": 9091,
      "Ġguards": 9092,
      "Ġinvites": 9093,
      "scotch": 9094,
      "Ġshrugs": 9095,
      "Ġcoolest": 9096,
      "ĠLeah": 9097,
      "Ġstriking": 9098,
      "Ġhoops": 9099,
      "Ġcurl": 9100,
      "iolet": 9101,
      "Ġmayor": 9102,
      "abra": 9103,
      "Ġlumberjack": 9104,
      "Davey": 9105,
      "Ġcaution": 9106,
      "Ġstroller": 9107,
      "ĠAuntie": 9108,
      "ĠExcitedly": 9109,
      "Ġcertainly": 9110,
      "Ġundone": 9111,
      "Betty": 9112,
      "Ġsweaters": 9113,
      "Ġtransformed": 9114,
      "ĠPenelope": 9115,
      "Ġenchanted": 9116,
      "Ġhuddled": 9117,
      "Bear": 9118,
      "Slowly": 9119,
      "ders": 9120,
      "pan": 9121,
      "sa": 9122,
      "Ġwaking": 9123,
      "Ġcages": 9124,
      "ĠTears": 9125,
      "ĠTammy": 9126,
      "isdom": 9127,
      "Ġnations": 9128,
      "ĠSil": 9129,
      "ĠSweet": 9130,
      "lephant": 9131,
      "Ġinvent": 9132,
      "Ġkit": 9133,
      "ĠMamma": 9134,
[...]
